#include "model.h"

alignas(16) const uint8_t g_model[] = {
  0x1C, 0x00, 0x00, 0x00, 0x54, 0x46, 0x4C, 0x33, 0x14, 0x00, 0x20, 0x00, 0x1C, 0x00, 0x18, 0x00,
  0x14, 0x00, 0x10, 0x00, 0x0C, 0x00, 0x00, 0x00, 0x08, 0x00, 0x04, 0x00, 0x14, 0x00, 0x00, 0x00,
  0x1C, 0x00, 0x00, 0x00, 0x90, 0x00, 0x00, 0x00, 0x10, 0x01, 0x00, 0x00, 0x78, 0x15, 0x00, 0x00,
  0x88, 0x15, 0x00, 0x00, 0xF0, 0x24, 0x00, 0x00, 0x03, 0x00, 0x00, 0x00, 0x01, 0x00, 0x00, 0x00,
  0x10, 0x00, 0x00, 0x00, 0x00, 0x00, 0x0A, 0x00, 0x10, 0x00, 0x0C, 0x00, 0x08, 0x00, 0x04, 0x00,
  0x0A, 0x00, 0x00, 0x00, 0x0C, 0x00, 0x00, 0x00, 0x1C, 0x00, 0x00, 0x00, 0x40, 0x00, 0x00, 0x00,
  0x0F, 0x00, 0x00, 0x00, 0x73, 0x65, 0x72, 0x76, 0x69, 0x6E, 0x67, 0x5F, 0x64, 0x65, 0x66, 0x61,
  0x75, 0x6C, 0x74, 0x00, 0x01, 0x00, 0x00, 0x00, 0x04, 0x00, 0x00, 0x00, 0x70, 0xFF, 0xFF, 0xFF,
  0x15, 0x00, 0x00, 0x00, 0x04, 0x00, 0x00, 0x00, 0x0D, 0x00, 0x00, 0x00, 0x71, 0x75, 0x61, 0x6E,
  0x74, 0x5F, 0x64, 0x65, 0x6E, 0x73, 0x65, 0x5F, 0x36, 0x00, 0x00, 0x00, 0x01, 0x00, 0x00, 0x00,
  0x04, 0x00, 0x00, 0x00, 0x8A, 0xEB, 0xFF, 0xFF, 0x04, 0x00, 0x00, 0x00, 0x01, 0x00, 0x00, 0x00,
  0x78, 0x00, 0x00, 0x00, 0x03, 0x00, 0x00, 0x00, 0x5C, 0x00, 0x00, 0x00, 0x2C, 0x00, 0x00, 0x00,
  0x04, 0x00, 0x00, 0x00, 0xB8, 0xFF, 0xFF, 0xFF, 0x19, 0x00, 0x00, 0x00, 0x04, 0x00, 0x00, 0x00,
  0x13, 0x00, 0x00, 0x00, 0x43, 0x4F, 0x4E, 0x56, 0x45, 0x52, 0x53, 0x49, 0x4F, 0x4E, 0x5F, 0x4D,
  0x45, 0x54, 0x41, 0x44, 0x41, 0x54, 0x41, 0x00, 0xDC, 0xFF, 0xFF, 0xFF, 0x18, 0x00, 0x00, 0x00,
  0x04, 0x00, 0x00, 0x00, 0x13, 0x00, 0x00, 0x00, 0x6D, 0x69, 0x6E, 0x5F, 0x72, 0x75, 0x6E, 0x74,
  0x69, 0x6D, 0x65, 0x5F, 0x76, 0x65, 0x72, 0x73, 0x69, 0x6F, 0x6E, 0x00, 0x08, 0x00, 0x0C, 0x00,
  0x08, 0x00, 0x04, 0x00, 0x08, 0x00, 0x00, 0x00, 0x17, 0x00, 0x00, 0x00, 0x04, 0x00, 0x00, 0x00,
  0x13, 0x00, 0x00, 0x00, 0x6D, 0x69, 0x6E, 0x5F, 0x72, 0x75, 0x6E, 0x74, 0x69, 0x6D, 0x65, 0x5F,
  0x76, 0x65, 0x72, 0x73, 0x69, 0x6F, 0x6E, 0x00, 0x1A, 0x00, 0x00, 0x00, 0x64, 0x14, 0x00, 0x00,
  0x5C, 0x14, 0x00, 0x00, 0xDC, 0x13, 0x00, 0x00, 0x54, 0x13, 0x00, 0x00, 0x4C, 0x13, 0x00, 0x00,
  0x2C, 0x10, 0x00, 0x00, 0xAC, 0x0F, 0x00, 0x00, 0xA4, 0x0F, 0x00, 0x00, 0x84, 0x0C, 0x00, 0x00,
  0x04, 0x0C, 0x00, 0x00, 0xFC, 0x0B, 0x00, 0x00, 0xDC, 0x08, 0x00, 0x00, 0x5C, 0x08, 0x00, 0x00,
  0x54, 0x08, 0x00, 0x00, 0x34, 0x05, 0x00, 0x00, 0xB4, 0x04, 0x00, 0x00, 0xAC, 0x04, 0x00, 0x00,
  0x8C, 0x01, 0x00, 0x00, 0x0C, 0x01, 0x00, 0x00, 0x04, 0x01, 0x00, 0x00, 0xD8, 0x00, 0x00, 0x00,
  0xC4, 0x00, 0x00, 0x00, 0xBC, 0x00, 0x00, 0x00, 0x9C, 0x00, 0x00, 0x00, 0x7C, 0x00, 0x00, 0x00,
  0x04, 0x00, 0x00, 0x00, 0x8A, 0xEC, 0xFF, 0xFF, 0x04, 0x00, 0x00, 0x00, 0x68, 0x00, 0x00, 0x00,
  0x10, 0x00, 0x00, 0x00, 0x00, 0x00, 0x00, 0x00, 0x08, 0x00, 0x0E, 0x00, 0x08, 0x00, 0x04, 0x00,
  0x08, 0x00, 0x00, 0x00, 0x10, 0x00, 0x00, 0x00, 0x2C, 0x00, 0x00, 0x00, 0x00, 0x00, 0x06, 0x00,
  0x08, 0x00, 0x04, 0x00, 0x06, 0x00, 0x00, 0x00, 0x04, 0x00, 0x00, 0x00, 0x02, 0x00, 0x00, 0x00,
  0xEB, 0x03, 0x00, 0x00, 0xD0, 0x07, 0x00, 0x00, 0x0C, 0x00, 0x18, 0x00, 0x14, 0x00, 0x10, 0x00,
  0x0C, 0x00, 0x04, 0x00, 0x0C, 0x00, 0x00, 0x00, 0xA6, 0x07, 0x56, 0x26, 0xBE, 0xB1, 0x2B, 0x8A,
  0x02, 0x00, 0x00, 0x00, 0x02, 0x00, 0x00, 0x00, 0x04, 0x00, 0x00, 0x00, 0x06, 0x00, 0x00, 0x00,
  0x32, 0x2E, 0x31, 0x39, 0x2E, 0x31, 0x00, 0x00, 0xFE, 0xEC, 0xFF, 0xFF, 0x04, 0x00, 0x00, 0x00,
  0x10, 0x00, 0x00, 0x00, 0x00, 0x00, 0x00, 0x00, 0x00, 0x00, 0x00, 0x00, 0x00, 0x00, 0x00, 0x00,
  0x00, 0x00, 0x00, 0x00, 0x1A, 0xED, 0xFF, 0xFF, 0x04, 0x00, 0x00, 0x00, 0x10, 0x00, 0x00, 0x00,
  0x31, 0x2E, 0x31, 0x34, 0x2E, 0x30, 0x00, 0x00, 0x00, 0x00, 0x00, 0x00, 0x00, 0x00, 0x00, 0x00,
  0x28, 0xEC, 0xFF, 0xFF, 0x3A, 0xED, 0xFF, 0xFF, 0x04, 0x00, 0x00, 0x00, 0x04, 0x00, 0x00, 0x00,
  0x35, 0x03, 0x00, 0x00, 0x4A, 0xED, 0xFF, 0xFF, 0x04, 0x00, 0x00, 0x00, 0x1C, 0x00, 0x00, 0x00,
  0xE1, 0xE5, 0x3B, 0x49, 0x45, 0xA2, 0xBE, 0x49, 0x49, 0xD6, 0x7F, 0xAD, 0xF0, 0xE5, 0xCB, 0x8F,
  0x41, 0xB7, 0xE7, 0xC6, 0x22, 0xAE, 0x6D, 0x41, 0x3D, 0xAB, 0xE5, 0xAC, 0x64, 0xEC, 0xFF, 0xFF,
  0x76, 0xED, 0xFF, 0xFF, 0x04, 0x00, 0x00, 0x00, 0x70, 0x00, 0x00, 0x00, 0x14, 0x07, 0x00, 0x00,
  0x64, 0xF9, 0xFF, 0xFF, 0xE8, 0x0B, 0x00, 0x00, 0x40, 0x0B, 0x00, 0x00, 0x82, 0x05, 0x00, 0x00,
  0x93, 0xFA, 0xFF, 0xFF, 0xC7, 0x09, 0x00, 0x00, 0xF0, 0x02, 0x00, 0x00, 0x94, 0x04, 0x00, 0x00,
  0x65, 0x05, 0x00, 0x00, 0x3D, 0xEF, 0xFF, 0xFF, 0xCF, 0xE9, 0xFF, 0xFF, 0x2A, 0xFA, 0xFF, 0xFF,
  0xCB, 0xFE, 0xFF, 0xFF, 0xDF, 0x08, 0x00, 0x00, 0xFA, 0xF1, 0xFF, 0xFF, 0xD5, 0x06, 0x00, 0x00,
  0xD2, 0x03, 0x00, 0x00, 0x71, 0x06, 0x00, 0x00, 0x99, 0xFC, 0xFF, 0xFF, 0x78, 0x1A, 0x00, 0x00,
  0x2B, 0xF3, 0xFF, 0xFF, 0xC7, 0xF5, 0xFF, 0xFF, 0xB1, 0x0C, 0x00, 0x00, 0x7B, 0x0F, 0x00, 0x00,
  0xE5, 0xFF, 0xFF, 0xFF, 0xFA, 0x05, 0x00, 0x00, 0x66, 0x03, 0x00, 0x00, 0xF2, 0xED, 0xFF, 0xFF,
  0x04, 0x00, 0x00, 0x00, 0x10, 0x03, 0x00, 0x00, 0xF6, 0x05, 0xF7, 0xE8, 0xF2, 0x2A, 0x00, 0x20,
  0xF3, 0x2A, 0x10, 0xF8, 0xBD, 0xE7, 0xBC, 0x49, 0x0B, 0x08, 0xFF, 0x05, 0x35, 0xCC, 0x10, 0xF8,
  0x0F, 0xD7, 0xDC, 0xFD, 0xD8, 0x2C, 0xFC, 0x39, 0xEB, 0x27, 0x09, 0xD5, 0x36, 0x0F, 0xF4, 0x1A,
  0x24, 0xC3, 0x16, 0xD4, 0x07, 0x04, 0xDB, 0xF1, 0xC9, 0xEF, 0x19, 0x02, 0x1A, 0xCA, 0x04, 0xE6,
  0x1A, 0x6A, 0x19, 0xFB, 0xD3, 0x1B, 0xC4, 0x13, 0x29, 0x10, 0xD3, 0xE8, 0x3B, 0x19, 0x43, 0x05,
  0x17, 0xE8, 0xF6, 0x5B, 0xB7, 0x1D, 0x15, 0x2E, 0xC5, 0xE3, 0x13, 0xAF, 0x22, 0x27, 0x49, 0x03,
  0x42, 0xF1, 0x13, 0xEE, 0xEB, 0xF7, 0xD6, 0x27, 0xFD, 0x16, 0x22, 0xDA, 0xEB, 0xCB, 0x44, 0x40,
  0xCF, 0x19, 0x20, 0x26, 0x03, 0x50, 0x0B, 0xF1, 0x2C, 0x0C, 0x2D, 0xF4, 0x01, 0x1E, 0x07, 0x36,
  0x27, 0x10, 0x15, 0xF7, 0x3D, 0x2A, 0xDD, 0xCB, 0x00, 0xCB, 0x37, 0xFE, 0x1F, 0x07, 0x2E, 0xCD,
  0xFD, 0x4A, 0x2F, 0x02, 0x12, 0x3E, 0xF5, 0xDD, 0xE6, 0xC6, 0x0A, 0xD7, 0xD6, 0x31, 0xD4, 0x10,
  0x00, 0x33, 0xF3, 0xD1, 0xE3, 0x1B, 0xAD, 0x1E, 0x34, 0x9F, 0x1E, 0xE4, 0x2D, 0xE1, 0xBE, 0x21,
  0x0E, 0xFA, 0xE1, 0xF4, 0x1B, 0x48, 0x3C, 0xF0, 0xF6, 0xC6, 0xFA, 0xBD, 0x0E, 0xDE, 0xEC, 0xE7,
  0x23, 0x22, 0x0C, 0x01, 0x4E, 0xD1, 0x1A, 0x48, 0x1B, 0xBE, 0xE6, 0x39, 0xFC, 0x02, 0xC5, 0xD4,
  0xC7, 0x2D, 0x2B, 0x01, 0xF0, 0x22, 0xED, 0xDC, 0x36, 0xFF, 0x9A, 0x3A, 0x18, 0xEA, 0x0D, 0x15,
  0xFD, 0x20, 0x18, 0xD9, 0xAC, 0xE5, 0x02, 0xAA, 0x38, 0x10, 0xDD, 0x09, 0xEA, 0x2C, 0xF7, 0xFC,
  0xCD, 0xEF, 0xD5, 0x36, 0x0B, 0x2F, 0xF7, 0xCF, 0x13, 0xB8, 0xF9, 0x2F, 0xE3, 0x58, 0x2E, 0xF7,
  0x08, 0x50, 0x03, 0xD3, 0xDC, 0x26, 0xDA, 0x1C, 0xEB, 0x4C, 0x4D, 0x36, 0x26, 0xDE, 0x29, 0x40,
  0xC6, 0x1E, 0xCD, 0xE3, 0xC7, 0x16, 0xFD, 0xD7, 0x34, 0xBD, 0xE5, 0x2A, 0xF1, 0xE5, 0xB7, 0x45,
  0x22, 0xBE, 0xCA, 0x06, 0x39, 0xC8, 0x27, 0x00, 0xFE, 0x03, 0x3C, 0x17, 0xD6, 0xE9, 0xEE, 0x0C,
  0xD3, 0x10, 0xEC, 0x08, 0x33, 0xD5, 0xC8, 0xA8, 0x4B, 0x36, 0x6F, 0x26, 0xE8, 0x0E, 0xDA, 0x43,
  0xEB, 0x22, 0x02, 0xD7, 0xFC, 0xC6, 0xD8, 0xE0, 0xCE, 0x17, 0x01, 0xF0, 0x32, 0xF0, 0xFB, 0x2D,
  0xEF, 0x2B, 0x3A, 0x16, 0xB0, 0x50, 0xE9, 0x08, 0x32, 0x05, 0x0A, 0x23, 0xCE, 0x36, 0x57, 0xFC,
  0xDC, 0x11, 0xDB, 0x03, 0x0E, 0xF7, 0xE8, 0x11, 0xF9, 0x1B, 0xEA, 0xCA, 0x0C, 0x00, 0xD7, 0xFA,
  0x0D, 0x19, 0x84, 0x38, 0x08, 0x1C, 0xD0, 0xC8, 0xED, 0xC6, 0x33, 0x11, 0xF6, 0xF3, 0x0F, 0x2A,
  0x24, 0xE8, 0xE2, 0xF9, 0xF7, 0x02, 0xEC, 0xE9, 0xE9, 0xEB, 0xFA, 0xE4, 0xEB, 0x28, 0x35, 0x1D,
  0x29, 0xCF, 0xD0, 0x3D, 0x1F, 0x29, 0x0D, 0xF6, 0x2B, 0x03, 0x04, 0xF1, 0xC3, 0x16, 0xD2, 0x0A,
  0x18, 0x6D, 0x1A, 0xDF, 0x14, 0xD4, 0xC3, 0xDA, 0x3E, 0x0C, 0xAD, 0xEF, 0xF5, 0x36, 0x2B, 0x42,
  0xB7, 0xED, 0xFB, 0x32, 0x02, 0xE6, 0x21, 0x23, 0xB9, 0x31, 0xC9, 0xF0, 0x12, 0x0D, 0xD0, 0xC1,
  0xDC, 0x1E, 0x14, 0x9C, 0x15, 0x2F, 0xC9, 0x15, 0xCB, 0x56, 0x39, 0xF7, 0x1C, 0xDB, 0xA1, 0x2B,
  0xE4, 0xC2, 0xFE, 0x46, 0x5B, 0x3A, 0xEE, 0xD6, 0xF9, 0xBD, 0x19, 0x33, 0x12, 0x5D, 0x22, 0xFF,
  0xEF, 0xD8, 0xF9, 0xC0, 0x46, 0xB8, 0x23, 0x3B, 0xC8, 0xF4, 0x59, 0xFD, 0x22, 0x0A, 0x46, 0xEB,
  0xC4, 0x37, 0xC6, 0x2B, 0x0B, 0x2D, 0xC3, 0xD5, 0x1F, 0xC2, 0xD3, 0x3F, 0xFC, 0xD2, 0xFC, 0x54,
  0x0A, 0xF6, 0xEB, 0x49, 0xD7, 0x49, 0x57, 0xF9, 0x31, 0x43, 0x2A, 0xF5, 0x0B, 0x18, 0xFC, 0x52,
  0xC2, 0x59, 0x22, 0xD9, 0x4B, 0xF5, 0xF5, 0xD3, 0x0A, 0x1E, 0x94, 0x2B, 0x30, 0xCD, 0xEA, 0xF0,
  0x2C, 0x28, 0xF2, 0xFE, 0xDD, 0xD6, 0x3B, 0x02, 0xAF, 0x21, 0x14, 0xE0, 0xDB, 0x43, 0xEA, 0x9A,
  0x34, 0xDE, 0xD6, 0x23, 0x33, 0xB9, 0xEA, 0x21, 0xD0, 0x0A, 0x36, 0xD9, 0x13, 0xF6, 0xE1, 0xDF,
  0x2F, 0x26, 0xC0, 0x0A, 0x53, 0xDF, 0x03, 0x02, 0x24, 0xF7, 0x55, 0x0E, 0xCC, 0x0E, 0x40, 0x20,
  0xCD, 0x00, 0x07, 0xE1, 0x17, 0x42, 0xC3, 0x1E, 0xEC, 0xD8, 0xE8, 0xEF, 0xF5, 0x2C, 0xE9, 0xE5,
  0x2A, 0xF7, 0xD8, 0x1E, 0x09, 0xEF, 0x07, 0x20, 0xE4, 0xFD, 0x3F, 0xB7, 0x3B, 0x48, 0xA0, 0x4D,
  0x32, 0xAC, 0x02, 0x2C, 0x1E, 0xFE, 0xD7, 0xDF, 0x04, 0xFE, 0x27, 0xB8, 0xCE, 0xE3, 0xB3, 0xED,
  0x3B, 0xDF, 0x9D, 0xF4, 0x1F, 0xDD, 0xEC, 0xEA, 0x39, 0x1D, 0x7F, 0x18, 0xF8, 0x51, 0x35, 0xDE,
  0xCA, 0xED, 0xD6, 0xF4, 0xCD, 0xC6, 0x27, 0x50, 0x27, 0x06, 0x1F, 0xDB, 0x14, 0xF2, 0x61, 0x55,
  0xC8, 0x29, 0x54, 0x36, 0xBE, 0xF0, 0x0B, 0xAE, 0x1E, 0x4F, 0x46, 0xCB, 0xCD, 0xFA, 0xAF, 0x14,
  0xE8, 0x05, 0xEA, 0xDC, 0x3C, 0x35, 0x44, 0xE6, 0x29, 0xBF, 0x20, 0x31, 0xCD, 0x36, 0x2E, 0x3F,
  0x10, 0x3C, 0xE6, 0xA2, 0x2F, 0x09, 0x31, 0x2D, 0xFB, 0x0B, 0xF5, 0xF9, 0xC5, 0x10, 0x08, 0xF1,
  0xC0, 0xD0, 0x1B, 0x3D, 0xCD, 0x41, 0xB6, 0xBD, 0x4C, 0x21, 0xC3, 0x17, 0x3A, 0xE4, 0x95, 0x29,
  0x19, 0xEF, 0x27, 0xF8, 0xF7, 0x09, 0x17, 0x27, 0xEC, 0xD6, 0x08, 0x05, 0xB3, 0x15, 0xDA, 0x4B,
  0xE7, 0x18, 0x1D, 0xDA, 0x4B, 0xBD, 0xDF, 0xF0, 0x21, 0xCF, 0xA7, 0x0C, 0x20, 0xEE, 0xD1, 0xFD,
  0x2F, 0x3E, 0x57, 0x22, 0xCA, 0x2A, 0x1A, 0x1F, 0x06, 0x12, 0xEC, 0x4F, 0xD7, 0x20, 0x1E, 0xA1,
  0x2E, 0xC0, 0xCB, 0xD2, 0x1A, 0xCE, 0xE0, 0x29, 0x00, 0xF0, 0xFF, 0xFF, 0x12, 0xF1, 0xFF, 0xFF,
  0x04, 0x00, 0x00, 0x00, 0x70, 0x00, 0x00, 0x00, 0x50, 0x05, 0x00, 0x00, 0xF8, 0x07, 0x00, 0x00,
  0x5F, 0x08, 0x00, 0x00, 0x34, 0xF1, 0xFF, 0xFF, 0x9E, 0xFE, 0xFF, 0xFF, 0x52, 0x05, 0x00, 0x00,
  0x96, 0x0A, 0x00, 0x00, 0xA7, 0xFD, 0xFF, 0xFF, 0xD0, 0xFF, 0xFF, 0xFF, 0x94, 0xFD, 0xFF, 0xFF,
  0xD1, 0xFD, 0xFF, 0xFF, 0x3D, 0x00, 0x00, 0x00, 0xFD, 0x0C, 0x00, 0x00, 0xD5, 0x07, 0x00, 0x00,
  0x2D, 0x02, 0x00, 0x00, 0x96, 0x05, 0x00, 0x00, 0x7A, 0x01, 0x00, 0x00, 0xE4, 0xFC, 0xFF, 0xFF,
  0x68, 0x09, 0x00, 0x00, 0x4F, 0xFE, 0xFF, 0xFF, 0x39, 0x05, 0x00, 0x00, 0xAD, 0x02, 0x00, 0x00,
  0x96, 0xFB, 0xFF, 0xFF, 0xD7, 0x1C, 0x00, 0x00, 0x27, 0x01, 0x00, 0x00, 0x8F, 0xFC, 0xFF, 0xFF,
  0x06, 0xF2, 0xFF, 0xFF, 0x08, 0xFF, 0xFF, 0xFF, 0x8E, 0xF1, 0xFF, 0xFF, 0x04, 0x00, 0x00, 0x00,
  0x10, 0x03, 0x00, 0x00, 0x2D, 0x40, 0x3A, 0xF5, 0xE6, 0x13, 0xC2, 0xE2, 0xF7, 0xE6, 0xC0, 0xE1,
  0x1C, 0x08, 0xF3, 0xF2, 0x05, 0xE5, 0x2D, 0x18, 0x4D, 0xEC, 0x15, 0x31, 0x46, 0x40, 0xE2, 0xF9,
  0x8E, 0xDF, 0xCF, 0xB9, 0xC2, 0xF9, 0x2D, 0xEA, 0x3A, 0x1C, 0x10, 0x4D, 0x09, 0x26, 0x9D, 0x34,
  0x04, 0x26, 0x22, 0xEB, 0xD0, 0x24, 0x37, 0xF8, 0xE6, 0xD6, 0x00, 0x1F, 0xF2, 0xD3, 0xD3, 0x1D,
  0x2A, 0xDD, 0x11, 0x0F, 0x44, 0xD3, 0x34, 0x0F, 0x2F, 0x17, 0x2C, 0x26, 0x1A, 0x0A, 0xDD, 0xD4,
  0xB3, 0xD1, 0xFA, 0x29, 0x04, 0x2D, 0xCC, 0x1E, 0xCD, 0xEA, 0xFB, 0xF5, 0xE9, 0x0B, 0x14, 0xFF,
  0x2C, 0xCD, 0xBF, 0xFF, 0x29, 0x27, 0xCD, 0xF0, 0x03, 0x23, 0x1F, 0x02, 0x4B, 0xCC, 0xF2, 0x10,
  0x2D, 0xD8, 0x33, 0xF6, 0x25, 0x17, 0x27, 0x0E, 0xD6, 0x1E, 0x9F, 0x0D, 0x0A, 0x37, 0xC6, 0x18,
  0xD5, 0x00, 0x2D, 0xBA, 0xF9, 0x06, 0xC2, 0x1C, 0x57, 0xD6, 0xF8, 0x23, 0xDF, 0x2E, 0x26, 0x38,
  0x36, 0x2F, 0x10, 0xD6, 0xD8, 0x11, 0x02, 0x45, 0xF2, 0xCB, 0x0D, 0xBE, 0xEB, 0xBD, 0x2B, 0x1A,
  0xE8, 0xE3, 0xF3, 0x48, 0x25, 0xE8, 0x25, 0x2B, 0xEE, 0x12, 0x19, 0x00, 0x56, 0x1F, 0x1B, 0xD7,
  0xF0, 0x49, 0x19, 0xDE, 0xF5, 0xEA, 0xE0, 0xBD, 0x0D, 0xED, 0x1B, 0xD8, 0xDF, 0xE5, 0x23, 0xCF,
  0x21, 0x30, 0xEA, 0xFC, 0x13, 0x02, 0x0F, 0x34, 0x05, 0xFE, 0x26, 0xF6, 0x1A, 0xFE, 0xDA, 0x2F,
  0xD3, 0x00, 0xE7, 0x10, 0x17, 0xE3, 0x07, 0x0D, 0x27, 0xDA, 0xCE, 0xFE, 0xCD, 0x0B, 0xE5, 0xCB,
  0xFC, 0xF1, 0x04, 0xD8, 0x22, 0xF5, 0xF8, 0xE4, 0x1C, 0x09, 0xED, 0xD3, 0xCA, 0x15, 0x1B, 0xCE,
  0xD7, 0x24, 0xDB, 0xFC, 0xEA, 0xD9, 0x0D, 0xD2, 0xE6, 0xC7, 0xED, 0x00, 0x26, 0xC7, 0xF0, 0x15,
  0xF4, 0x22, 0xFF, 0xF0, 0x1D, 0x12, 0xF7, 0xD7, 0xB1, 0xFE, 0xD5, 0xF5, 0x2F, 0x13, 0xEF, 0xD1,
  0xD0, 0x21, 0x35, 0x1F, 0xFE, 0x18, 0x44, 0x1F, 0x29, 0x1A, 0x0D, 0x2F, 0x22, 0x3A, 0xFB, 0x0A,
  0xD9, 0x1F, 0xBE, 0x31, 0xBB, 0x11, 0xCA, 0xC0, 0x40, 0x0A, 0xEB, 0x16, 0xC9, 0x03, 0x1A, 0x31,
  0x12, 0xC9, 0x12, 0xF1, 0x0B, 0x26, 0x40, 0x0E, 0xDD, 0xD8, 0x2B, 0xD8, 0x28, 0xE8, 0x1E, 0x21,
  0x36, 0xC6, 0x5A, 0x08, 0xE4, 0x1B, 0xB0, 0x39, 0xD5, 0x42, 0x25, 0xDE, 0xAF, 0xE8, 0x15, 0x21,
  0xCB, 0x24, 0x24, 0x17, 0xBF, 0xD2, 0xCE, 0x46, 0x4E, 0xEE, 0x0D, 0xF5, 0x4A, 0x3B, 0x18, 0xF4,
  0x10, 0xF9, 0xE8, 0xFB, 0x09, 0x18, 0x0A, 0x07, 0xEF, 0x12, 0xE2, 0xDD, 0xCB, 0x20, 0xF1, 0x35,
  0xD6, 0xDF, 0x06, 0xCD, 0x0E, 0xE2, 0x34, 0xFD, 0x28, 0x12, 0x14, 0x0A, 0x1A, 0x1B, 0xE4, 0xF3,
  0x3C, 0x4B, 0xFA, 0xD7, 0xBE, 0x20, 0xDE, 0x3A, 0xE0, 0x30, 0xF7, 0x2E, 0xAD, 0x1B, 0x2B, 0x24,
  0x05, 0x03, 0x31, 0xD6, 0x48, 0x1C, 0x22, 0x34, 0x2C, 0xC2, 0x0D, 0xDC, 0x0E, 0xF6, 0xD5, 0xDD,
  0xC3, 0x14, 0x1B, 0xDD, 0xFA, 0x1F, 0xEC, 0x1B, 0xEF, 0x44, 0x07, 0xC1, 0x05, 0x27, 0xCC, 0x3A,
  0xE1, 0xE9, 0xB7, 0xB1, 0x05, 0x2C, 0xE7, 0xF2, 0xE6, 0xC2, 0x10, 0xF9, 0xFC, 0xE7, 0x32, 0x3D,
  0x31, 0xE9, 0x36, 0xE9, 0x00, 0xD2, 0x05, 0xFC, 0x16, 0xEE, 0x1F, 0xB3, 0x21, 0xFD, 0xD8, 0x28,
  0xC3, 0x20, 0x0E, 0xF5, 0x2F, 0x21, 0x0D, 0xE0, 0xDD, 0x0A, 0xD2, 0x27, 0xD2, 0x2C, 0x29, 0x28,
  0x33, 0xEC, 0xD2, 0x09, 0xF1, 0xF3, 0xDA, 0xFA, 0x11, 0x2A, 0xD1, 0xCD, 0x05, 0x45, 0x2A, 0xBF,
  0xA3, 0x06, 0x3B, 0xF5, 0x2F, 0xE8, 0x48, 0x11, 0x38, 0xD1, 0xD3, 0xDA, 0xA8, 0xEA, 0xFB, 0xAC,
  0xB4, 0xC0, 0x3A, 0x16, 0x47, 0x2F, 0x0A, 0x50, 0x16, 0xD1, 0xD5, 0x36, 0xED, 0xF5, 0xDA, 0xE1,
  0x91, 0xCD, 0x15, 0xFF, 0xCA, 0x1C, 0x18, 0xFB, 0x29, 0xE6, 0xF5, 0xE5, 0xCC, 0x26, 0x37, 0x0F,
  0x17, 0xDE, 0x31, 0xF4, 0x09, 0xFF, 0xB4, 0xEF, 0xC8, 0x03, 0xED, 0x08, 0x27, 0x06, 0xFA, 0xEE,
  0xE8, 0xFE, 0x00, 0xCB, 0x5F, 0x30, 0x20, 0xF1, 0xF3, 0x48, 0x0C, 0x49, 0x10, 0x23, 0x3B, 0xF1,
  0xE4, 0xC7, 0x31, 0xDD, 0x20, 0xD0, 0x24, 0x38, 0x04, 0x19, 0x39, 0x23, 0xDF, 0xDC, 0x19, 0x0B,
  0xED, 0x1B, 0xD3, 0x00, 0xE9, 0xE3, 0x31, 0xDD, 0x2D, 0xE2, 0x36, 0x3F, 0x26, 0x17, 0xC4, 0x40,
  0xE0, 0xF0, 0x20, 0xF8, 0xBC, 0xCF, 0x15, 0xF5, 0xF3, 0xF2, 0x22, 0x21, 0xF1, 0x17, 0x1D, 0xD0,
  0x0B, 0xFB, 0x2A, 0xD4, 0x0A, 0xDD, 0x3A, 0x45, 0xFE, 0xD4, 0xB0, 0x33, 0x13, 0x08, 0x34, 0xF0,
  0xCE, 0xE5, 0xAC, 0x08, 0x06, 0xD6, 0xE4, 0x3D, 0xAE, 0x03, 0x33, 0xD4, 0x16, 0xC1, 0x10, 0x02,
  0x01, 0x2B, 0x3F, 0x2F, 0xDC, 0xD7, 0xD9, 0xDB, 0xD8, 0x0F, 0x23, 0x25, 0xF3, 0x39, 0x06, 0xD0,
  0xF0, 0x2A, 0x3D, 0xF0, 0x2E, 0x21, 0xD3, 0x1F, 0x42, 0x94, 0xCA, 0x18, 0x17, 0x0C, 0xC9, 0x81,
  0xF5, 0x4A, 0x13, 0xC0, 0xAC, 0x3A, 0xE2, 0xE8, 0x48, 0xCC, 0x26, 0xCD, 0x38, 0xCD, 0x07, 0xE6,
  0x02, 0x24, 0xD5, 0x40, 0x0F, 0x14, 0xA6, 0x0C, 0xF6, 0xC8, 0x13, 0xD6, 0x34, 0x43, 0xDC, 0xEA,
  0x24, 0xB3, 0xE8, 0x06, 0x2B, 0xE6, 0x36, 0x21, 0x24, 0xC9, 0x12, 0xF4, 0x46, 0xF0, 0xCF, 0xCB,
  0xBF, 0x56, 0xD8, 0x42, 0x1D, 0x25, 0x06, 0x25, 0x2F, 0x6B, 0xAD, 0x13, 0xE2, 0xE3, 0xF4, 0x00,
  0x50, 0xF5, 0x14, 0xD9, 0xFD, 0xED, 0xDF, 0x31, 0x17, 0x25, 0x2F, 0xD2, 0x16, 0x35, 0x2D, 0xFB,
  0xC5, 0x3D, 0x14, 0xED, 0x3C, 0x0D, 0xBE, 0xCB, 0xC2, 0x2A, 0x13, 0xEE, 0x3E, 0xEA, 0x13, 0x1A,
  0x21, 0xD2, 0x32, 0x1B, 0x9C, 0xF3, 0xFF, 0xFF, 0xAE, 0xF4, 0xFF, 0xFF, 0x04, 0x00, 0x00, 0x00,
  0x70, 0x00, 0x00, 0x00, 0x8F, 0x05, 0x00, 0x00, 0xCB, 0x00, 0x00, 0x00, 0xEB, 0xFE, 0xFF, 0xFF,
  0xAC, 0xF7, 0xFF, 0xFF, 0xB1, 0xF4, 0xFF, 0xFF, 0x64, 0x01, 0x00, 0x00, 0xE6, 0x05, 0x00, 0x00,
  0x3E, 0xFE, 0xFF, 0xFF, 0x7D, 0x0B, 0x00, 0x00, 0xB6, 0xF9, 0xFF, 0xFF, 0xBC, 0xFE, 0xFF, 0xFF,
  0xA9, 0x07, 0x00, 0x00, 0xA8, 0xF9, 0xFF, 0xFF, 0xF3, 0xF4, 0xFF, 0xFF, 0xDF, 0x0F, 0x00, 0x00,
  0xC8, 0xFE, 0xFF, 0xFF, 0x34, 0x00, 0x00, 0x00, 0x72, 0x09, 0x00, 0x00, 0x7B, 0x09, 0x00, 0x00,
  0xB5, 0xFD, 0xFF, 0xFF, 0xA2, 0xFF, 0xFF, 0xFF, 0x00, 0x00, 0x00, 0x00, 0x6A, 0x0C, 0x00, 0x00,
  0x75, 0x03, 0x00, 0x00, 0xF4, 0xFB, 0xFF, 0xFF, 0x3B, 0x09, 0x00, 0x00, 0x95, 0x08, 0x00, 0x00,
  0xE3, 0x01, 0x00, 0x00, 0x2A, 0xF5, 0xFF, 0xFF, 0x04, 0x00, 0x00, 0x00, 0x10, 0x03, 0x00, 0x00,
  0xEE, 0x11, 0x2B, 0xC9, 0xF6, 0xC2, 0xDA, 0xC0, 0xD1, 0x07, 0xDA, 0xE2, 0xDD, 0x01, 0x36, 0xF2,
  0xD6, 0x21, 0xD2, 0x04, 0xFF, 0x14, 0x32, 0xDF, 0xF0, 0xED, 0xEE, 0x00, 0x19, 0x33, 0x1C, 0xE0,
  0x14, 0xD2, 0xD5, 0x33, 0x2C, 0x2B, 0x44, 0x33, 0x3D, 0xED, 0x19, 0xCA, 0x11, 0x1B, 0xF8, 0x12,
  0x0B, 0xF8, 0xD2, 0xE0, 0x02, 0x1D, 0xD1, 0xDA, 0xF6, 0x0E, 0x0D, 0xE7, 0xF1, 0x0F, 0x36, 0x11,
  0x0D, 0xE6, 0xD9, 0xF9, 0xEB, 0x31, 0xFA, 0x15, 0xE2, 0xDB, 0xD0, 0x18, 0xC8, 0x1D, 0x1E, 0xE1,
  0xD3, 0xE1, 0x1C, 0x05, 0x06, 0xBF, 0x50, 0xC6, 0x17, 0xD1, 0xBF, 0x2D, 0xD7, 0x1C, 0x1F, 0xC9,
  0x0F, 0xDD, 0xF3, 0x95, 0xEC, 0xF5, 0x15, 0x21, 0x24, 0xF8, 0x01, 0x03, 0xD6, 0xE3, 0xFC, 0xDC,
  0x11, 0xD5, 0x05, 0xD2, 0xE6, 0xF6, 0x21, 0x2A, 0xAA, 0x14, 0x3F, 0xE0, 0xD0, 0x05, 0xE6, 0xD7,
  0xE7, 0x28, 0xF8, 0xC5, 0xFF, 0x1E, 0xFF, 0x17, 0x35, 0x08, 0x45, 0xD7, 0xA6, 0xD3, 0x2E, 0xD5,
  0xFA, 0x2A, 0xA8, 0xE8, 0xE7, 0xEF, 0x14, 0x0B, 0xF8, 0x01, 0x38, 0x10, 0x08, 0x8C, 0xD2, 0x29,
  0xD7, 0x3D, 0x32, 0x8C, 0x28, 0xE4, 0xE3, 0x21, 0x1A, 0x01, 0xFD, 0xE0, 0xDF, 0xB5, 0x18, 0xE0,
  0x11, 0xF0, 0xD1, 0xE4, 0xFB, 0x04, 0xF3, 0x33, 0x1A, 0x38, 0x0A, 0xD1, 0xDE, 0x0C, 0x1D, 0xBB,
  0x2A, 0xB9, 0x0A, 0xD9, 0xDD, 0x0F, 0x13, 0xCF, 0xE4, 0xE7, 0xD2, 0x2A, 0x45, 0xF9, 0x4C, 0xF4,
  0xE6, 0x00, 0x23, 0xF5, 0x25, 0xCB, 0x1D, 0x3D, 0xEE, 0x23, 0x17, 0xB6, 0x01, 0xC5, 0x36, 0xD6,
  0x30, 0xD5, 0xBD, 0xEC, 0xD8, 0x25, 0x51, 0xDB, 0x01, 0x1A, 0x02, 0x9E, 0x2F, 0xDF, 0x21, 0x47,
  0x1D, 0x38, 0x29, 0x2B, 0xF1, 0x28, 0xC7, 0xF1, 0xCC, 0xC9, 0x3C, 0x09, 0xC1, 0x1D, 0x2A, 0xCE,
  0xE1, 0xEA, 0x05, 0x31, 0xC9, 0xE5, 0xFC, 0xCA, 0x04, 0x2B, 0xE0, 0xEF, 0x07, 0xD8, 0xF8, 0x1F,
  0xFD, 0x09, 0xE0, 0xE8, 0x2B, 0xBC, 0xD3, 0x04, 0xDB, 0xD2, 0xE9, 0xD5, 0x20, 0x3D, 0x12, 0xD4,
  0x17, 0xCD, 0x17, 0x05, 0x31, 0x14, 0xD9, 0xE3, 0x24, 0x34, 0xB3, 0x2B, 0x0A, 0xD7, 0xB2, 0x4E,
  0xB6, 0xE6, 0xD5, 0xE2, 0xF9, 0x19, 0xC1, 0xEA, 0x0A, 0xE9, 0x10, 0xF7, 0xFF, 0xC8, 0x07, 0xBB,
  0x2E, 0xCF, 0x35, 0x33, 0x30, 0xF5, 0xF3, 0xC6, 0xEE, 0xC8, 0xE2, 0x37, 0x29, 0xF7, 0xD7, 0x33,
  0xEC, 0xC2, 0x16, 0x29, 0xB0, 0xE1, 0x42, 0xDA, 0xEB, 0x02, 0xC3, 0xE4, 0x20, 0x45, 0xF7, 0x31,
  0xE8, 0x3B, 0xCE, 0x29, 0x00, 0x17, 0x06, 0xF6, 0xBB, 0x1C, 0x25, 0xBA, 0xE4, 0xC7, 0x43, 0xFF,
  0x14, 0xDB, 0xFC, 0x2D, 0xED, 0x2B, 0x4F, 0x12, 0x44, 0x0D, 0xD3, 0xEC, 0xD0, 0x08, 0xDE, 0xE6,
  0x26, 0xE2, 0x24, 0xF5, 0xF0, 0xCA, 0xFD, 0x01, 0x17, 0x2C, 0x10, 0x22, 0xE5, 0x25, 0xFB, 0xE2,
  0xC3, 0xC3, 0x48, 0x5F, 0xDB, 0x2A, 0x26, 0xBB, 0x40, 0xF5, 0x1D, 0xDA, 0xD3, 0x19, 0x02, 0x10,
  0xBA, 0x0E, 0x0A, 0xDA, 0x29, 0x3A, 0xE7, 0x03, 0xDE, 0xF4, 0x7F, 0x08, 0x1F, 0xC4, 0xE6, 0x9E,
  0x35, 0xC7, 0x13, 0xEB, 0x3D, 0x41, 0xE4, 0xDE, 0xE5, 0x0D, 0xFD, 0x38, 0x28, 0x2E, 0xFB, 0xE8,
  0xE0, 0x18, 0xDC, 0xD2, 0xDC, 0x24, 0x2F, 0xF9, 0x2A, 0x2D, 0x1C, 0xAC, 0xF9, 0xD3, 0xCF, 0x2F,
  0x09, 0xC9, 0x1E, 0x09, 0xDC, 0x04, 0x36, 0x3E, 0xEC, 0x2D, 0xE2, 0x20, 0x0B, 0xD6, 0xAB, 0x1F,
  0x89, 0xDE, 0x42, 0xE9, 0xF3, 0x16, 0xE8, 0xD2, 0x3D, 0xCD, 0x20, 0xE2, 0xFD, 0x2E, 0xCC, 0x3C,
  0xF8, 0xD8, 0x02, 0x28, 0x1D, 0xF0, 0x1A, 0x03, 0xC1, 0x25, 0x05, 0xF7, 0xF5, 0xF6, 0x02, 0x10,
  0x07, 0x2F, 0xE0, 0x56, 0xD5, 0xC5, 0x36, 0xDF, 0x1E, 0xCF, 0xF9, 0xFF, 0xFD, 0x3F, 0xD2, 0x07,
  0x10, 0x07, 0xF9, 0xFE, 0xC1, 0xF8, 0xEB, 0xD5, 0x31, 0xF9, 0xB5, 0xDD, 0x2A, 0xFC, 0x1F, 0x03,
  0x1F, 0xEC, 0xE2, 0xB2, 0x00, 0x09, 0x23, 0x27, 0x0C, 0x22, 0x02, 0xFE, 0xFF, 0x09, 0x0E, 0x20,
  0xBE, 0xF0, 0x35, 0xDA, 0xFF, 0xE5, 0xC9, 0x28, 0x48, 0xE8, 0x23, 0xF2, 0x02, 0x0E, 0xFE, 0xC4,
  0x2E, 0xDB, 0xCF, 0x44, 0x34, 0xDB, 0x2E, 0xC3, 0x13, 0xD7, 0xDB, 0xE2, 0x15, 0xF7, 0x09, 0xDE,
  0xCF, 0xE0, 0xF2, 0xE9, 0x1F, 0xDC, 0xE6, 0xD5, 0xD9, 0x39, 0xDC, 0x19, 0xC9, 0xEF, 0xF9, 0xE2,
  0xE9, 0x27, 0xDF, 0x07, 0x11, 0xCA, 0xCA, 0x0D, 0x2F, 0xEB, 0x33, 0xE8, 0xF6, 0xD7, 0xB6, 0xEA,
  0xE9, 0xE7, 0xF0, 0x3D, 0xD7, 0xC1, 0x31, 0xC2, 0x24, 0xF0, 0xEC, 0x1D, 0xFB, 0x36, 0x23, 0xB5,
  0x3A, 0xE0, 0x1E, 0xFA, 0x10, 0xF0, 0x47, 0x21, 0x42, 0x13, 0xF5, 0x47, 0x2B, 0x0E, 0xDC, 0x49,
  0x27, 0xDA, 0x23, 0xD5, 0xE8, 0xD0, 0xF2, 0x08, 0x0D, 0xF4, 0x32, 0x11, 0xD6, 0xE4, 0x29, 0x1E,
  0xCF, 0xE0, 0xFE, 0x1C, 0xFE, 0x04, 0xCD, 0x2C, 0x22, 0x2B, 0x4E, 0x3C, 0x47, 0xF9, 0xEC, 0x16,
  0x46, 0xFC, 0xD2, 0x1F, 0x1B, 0xDE, 0xF8, 0xD8, 0xF0, 0x11, 0xEE, 0xC1, 0x23, 0x1D, 0xD9, 0xCF,
  0xD8, 0x46, 0x23, 0x0F, 0xE0, 0x2C, 0xAE, 0xCD, 0x30, 0x1B, 0x25, 0x1D, 0xCF, 0x00, 0x3C, 0x12,
  0xF5, 0xF0, 0x01, 0xDC, 0x02, 0xE1, 0xFF, 0x21, 0xCB, 0xEC, 0xFD, 0xCA, 0x44, 0x18, 0xE3, 0x38,
  0x3A, 0x22, 0x25, 0xF9, 0xEC, 0xDD, 0x25, 0xE7, 0x10, 0x4C, 0xE9, 0xD2, 0x08, 0xCD, 0x2A, 0xFA,
  0xDC, 0xE2, 0xF2, 0x06, 0xFC, 0x29, 0xCF, 0xC7, 0xCA, 0x43, 0xEF, 0x30, 0x1E, 0x01, 0x1C, 0xFD,
  0xFC, 0xCD, 0xFC, 0xFA, 0xE7, 0xD4, 0x35, 0xC9, 0x2A, 0x1F, 0x1F, 0x11, 0xFD, 0xE7, 0x00, 0x54,
  0x38, 0xF7, 0xFF, 0xFF, 0x4A, 0xF8, 0xFF, 0xFF, 0x04, 0x00, 0x00, 0x00, 0x70, 0x00, 0x00, 0x00,
  0xD0, 0x06, 0x00, 0x00, 0x64, 0x02, 0x00, 0x00, 0x5C, 0xF9, 0xFF, 0xFF, 0xBD, 0xF9, 0xFF, 0xFF,
  0xF0, 0x0C, 0x00, 0x00, 0x13, 0x00, 0x00, 0x00, 0x5F, 0x02, 0x00, 0x00, 0xEB, 0x06, 0x00, 0x00,
  0xEE, 0xFE, 0xFF, 0xFF, 0xB0, 0xFD, 0xFF, 0xFF, 0xBA, 0xFC, 0xFF, 0xFF, 0xB4, 0x03, 0x00, 0x00,
  0x1E, 0x01, 0x00, 0x00, 0x7E, 0xFF, 0xFF, 0xFF, 0x30, 0x15, 0x00, 0x00, 0x9B, 0xFA, 0xFF, 0xFF,
  0x13, 0x07, 0x00, 0x00, 0x3D, 0x00, 0x00, 0x00, 0xE0, 0x02, 0x00, 0x00, 0xB7, 0xFE, 0xFF, 0xFF,
  0xCF, 0xFA, 0xFF, 0xFF, 0x3E, 0x04, 0x00, 0x00, 0x51, 0x00, 0x00, 0x00, 0x0C, 0xFC, 0xFF, 0xFF,
  0xCA, 0xFE, 0xFF, 0xFF, 0x07, 0xF9, 0xFF, 0xFF, 0x30, 0xFE, 0xFF, 0xFF, 0xD5, 0x06, 0x00, 0x00,
  0xC6, 0xF8, 0xFF, 0xFF, 0x04, 0x00, 0x00, 0x00, 0x10, 0x03, 0x00, 0x00, 0x16, 0x0B, 0xBA, 0x0D,
  0xD3, 0x36, 0x11, 0xCC, 0x4E, 0xF9, 0x1F, 0x31, 0x61, 0x51, 0xEF, 0xFE, 0xCD, 0x14, 0x39, 0xE7,
  0x37, 0x14, 0xD2, 0xCE, 0xEE, 0x3C, 0x2B, 0xD4, 0xBD, 0x33, 0x01, 0x21, 0x01, 0xDD, 0xD0, 0x27,
  0xB9, 0x17, 0xF7, 0x12, 0xEE, 0x41, 0xBD, 0x17, 0x26, 0x13, 0x39, 0xEB, 0x27, 0x28, 0x0D, 0xBD,
  0x26, 0xF6, 0xD6, 0xA2, 0x3F, 0xB1, 0x5D, 0x1A, 0xCD, 0x81, 0xF9, 0x1B, 0xEC, 0xC7, 0xE3, 0x39,
  0x39, 0x1C, 0x17, 0xEB, 0x35, 0x22, 0xC9, 0xD1, 0xF9, 0x1F, 0x2D, 0xEA, 0x0F, 0xC8, 0x05, 0x15,
  0x35, 0x11, 0xD6, 0xDC, 0x13, 0xF8, 0xF5, 0x24, 0x07, 0x1F, 0x25, 0x95, 0x11, 0xB3, 0x16, 0xCD,
  0xC5, 0xF2, 0x27, 0xF0, 0xD7, 0xF5, 0x31, 0xF3, 0x3B, 0xF6, 0x3E, 0xE6, 0x0F, 0x18, 0xE3, 0xE2,
  0x86, 0xCD, 0x2B, 0xA3, 0x3F, 0xC9, 0x01, 0xDE, 0xBC, 0x4C, 0xDF, 0x1B, 0xFE, 0x2E, 0x28, 0x14,
  0xE0, 0x94, 0xF3, 0xCF, 0x01, 0xED, 0xBE, 0xD5, 0xF0, 0x1F, 0xB2, 0x2C, 0xC3, 0x17, 0xC1, 0xC6,
  0xC5, 0xE5, 0xE6, 0xC3, 0xF6, 0x25, 0x0D, 0xC1, 0x3A, 0x31, 0x0B, 0x08, 0x2C, 0xEF, 0xD5, 0xC2,
  0x30, 0x66, 0x21, 0x36, 0x33, 0xDC, 0x1C, 0x2A, 0xFF, 0x5A, 0xCD, 0xDF, 0xE3, 0xFC, 0xCE, 0xB5,
  0xF9, 0xF4, 0xEB, 0xD7, 0xDA, 0xBC, 0xBA, 0x0E, 0x00, 0x4D, 0xE3, 0x01, 0x35, 0x46, 0xFF, 0xC6,
  0xC2, 0xF9, 0x38, 0x11, 0xC3, 0xFC, 0x44, 0xC9, 0x2C, 0x21, 0x39, 0x49, 0xE2, 0x26, 0xF3, 0x1A,
  0x15, 0xE7, 0xD7, 0x4C, 0x30, 0xE4, 0x27, 0xC3, 0x22, 0xD0, 0xC9, 0xEA, 0xF3, 0x1A, 0x40, 0x3F,
  0x23, 0xFB, 0xE7, 0x33, 0x07, 0x21, 0xD5, 0x27, 0xEC, 0x14, 0xC6, 0x21, 0xD5, 0xF4, 0x21, 0x23,
  0xD4, 0x2D, 0x39, 0xF9, 0xF1, 0x97, 0xC6, 0x19, 0x04, 0x19, 0x25, 0x10, 0x15, 0x33, 0xFD, 0x24,
  0x59, 0x42, 0xE6, 0x31, 0xBF, 0x14, 0xD9, 0x13, 0x02, 0x34, 0x33, 0x06, 0xF4, 0xF1, 0xF1, 0x36,
  0xF2, 0x30, 0xE0, 0x53, 0x16, 0xEE, 0x29, 0x14, 0xD4, 0x1C, 0x5A, 0xDB, 0x18, 0xB8, 0x02, 0x0E,
  0xC8, 0xF2, 0x12, 0x18, 0x30, 0x1B, 0xCC, 0x1A, 0x15, 0x24, 0xF6, 0xF6, 0xF0, 0x9F, 0x0F, 0x5C,
  0xBF, 0x28, 0x3F, 0xEF, 0x8D, 0xBD, 0xD3, 0x04, 0xFD, 0xF6, 0xDD, 0xFF, 0x1E, 0xDA, 0x18, 0xE3,
  0xB6, 0x2B, 0xE1, 0x48, 0xFC, 0xAB, 0xC1, 0xDE, 0x14, 0xBE, 0xD7, 0xB2, 0x51, 0xEC, 0x09, 0x2B,
  0x00, 0x12, 0x0D, 0x16, 0xBD, 0xE0, 0x2F, 0xFF, 0x52, 0x0E, 0xE5, 0xC2, 0x05, 0xAC, 0x33, 0xE4,
  0xF7, 0xCE, 0xCB, 0x24, 0x48, 0xF4, 0x16, 0xA5, 0x23, 0xD7, 0x11, 0xCF, 0x1E, 0xE5, 0xD9, 0xEC,
  0xCB, 0x1E, 0x34, 0xA7, 0xD3, 0xC6, 0x4C, 0xF0, 0xD6, 0xE8, 0xE2, 0xD3, 0x54, 0x3D, 0xD9, 0x60,
  0xF5, 0xF1, 0x1A, 0x17, 0xF6, 0xD0, 0x49, 0x16, 0xD7, 0x36, 0xF3, 0x2B, 0xF6, 0x01, 0xEB, 0xF2,
  0xF4, 0x03, 0x2B, 0xD0, 0x2F, 0xD1, 0x36, 0xE5, 0xC6, 0x19, 0xEB, 0xBB, 0x26, 0x18, 0xE2, 0x07,
  0xC4, 0x33, 0x4B, 0xCE, 0xDB, 0xF8, 0x07, 0xF9, 0xFC, 0x12, 0x19, 0x00, 0x5C, 0xF1, 0xEE, 0xCF,
  0xDF, 0xEB, 0xF4, 0xED, 0x4F, 0x0C, 0xC8, 0x34, 0x38, 0x38, 0xF0, 0xA2, 0x38, 0xE3, 0x17, 0x3A,
  0x07, 0x3E, 0x22, 0xD8, 0xF2, 0xCA, 0x0E, 0xD3, 0x7F, 0x45, 0x3D, 0xE1, 0xE8, 0x33, 0xDD, 0x32,
  0x3B, 0x3D, 0x1B, 0xD5, 0xFD, 0xF3, 0xC6, 0xFA, 0x21, 0xC7, 0xD5, 0xD4, 0xF4, 0x38, 0xE3, 0x22,
  0xD1, 0xE8, 0x2D, 0xE2, 0x31, 0x04, 0x44, 0xFE, 0xC5, 0x9F, 0xCD, 0xE6, 0x3C, 0x1B, 0xE4, 0xF5,
  0x2E, 0xCF, 0x0E, 0x00, 0xFF, 0x2A, 0xEF, 0x41, 0xD4, 0x2E, 0xE1, 0x1C, 0xF2, 0xE1, 0x3B, 0x02,
  0xF9, 0x37, 0x22, 0xD2, 0x32, 0x00, 0xCA, 0xED, 0x05, 0x41, 0xBE, 0xF4, 0x25, 0x2A, 0x1E, 0x3C,
  0x45, 0xEB, 0xEE, 0x12, 0x15, 0xE1, 0xCD, 0x2C, 0xD3, 0x13, 0xE9, 0x1A, 0xC6, 0xD2, 0x27, 0x06,
  0x0F, 0xBB, 0xCA, 0x22, 0x13, 0x29, 0xCE, 0x41, 0x28, 0xC5, 0xF6, 0x57, 0x16, 0xE3, 0x4D, 0x28,
  0x24, 0x1D, 0x15, 0x10, 0x4A, 0xF3, 0xE2, 0x56, 0x00, 0xDF, 0x40, 0xC4, 0x08, 0xFD, 0x3B, 0xE9,
  0xED, 0x11, 0x28, 0xF6, 0x35, 0xFD, 0x1F, 0x4B, 0xF5, 0xA8, 0x23, 0x04, 0xFF, 0xCF, 0xC9, 0x42,
  0x25, 0x07, 0xE2, 0xD2, 0xD7, 0x03, 0xCD, 0x42, 0x21, 0xD4, 0xFB, 0xC3, 0xB3, 0x11, 0x06, 0x31,
  0xFF, 0xE3, 0xCE, 0x3C, 0x0A, 0x22, 0x6C, 0x3D, 0xD3, 0x12, 0x34, 0xCA, 0x45, 0x31, 0x2C, 0x2D,
  0xAD, 0xE3, 0xCC, 0x36, 0x29, 0x36, 0x1B, 0xEB, 0xF2, 0x10, 0x16, 0xFA, 0x18, 0xE8, 0x20, 0xEA,
  0x22, 0xC4, 0xE9, 0xD4, 0xFF, 0x2F, 0xD0, 0xDB, 0xDD, 0x10, 0x20, 0x04, 0xEC, 0x3B, 0xE4, 0x03,
  0x42, 0x48, 0xF8, 0xD1, 0x2D, 0xDE, 0x3E, 0x16, 0x4B, 0x24, 0xC4, 0xBC, 0x0E, 0x28, 0xFD, 0xFE,
  0x1F, 0xB1, 0x4F, 0x11, 0x00, 0x20, 0xE4, 0xDA, 0xF0, 0xDA, 0xE4, 0x3D, 0x26, 0x29, 0x14, 0xC5,
  0x06, 0x1D, 0x20, 0x19, 0x29, 0xFC, 0xB7, 0x03, 0x17, 0x07, 0xBD, 0x07, 0x3C, 0x06, 0xCB, 0x08,
  0xC5, 0x47, 0xE1, 0xF5, 0xCF, 0x37, 0xE5, 0xEA, 0x26, 0x4B, 0x23, 0x30, 0xD9, 0x11, 0xD8, 0xF7,
  0xF8, 0x57, 0xD2, 0xD6, 0x08, 0x0C, 0x0A, 0x18, 0xDF, 0xD6, 0x1F, 0x44, 0x2F, 0x3A, 0xDB, 0xB4,
  0x5F, 0xFD, 0xEB, 0xD8, 0xF0, 0xE9, 0x0D, 0xFE, 0x24, 0x23, 0xFD, 0x25, 0xCC, 0x0D, 0xDD, 0xFD,
  0x29, 0x13, 0x09, 0xC8, 0xA3, 0x17, 0x1F, 0xEB, 0xB4, 0xC9, 0x07, 0xBB, 0x1A, 0xE0, 0xE7, 0xDB,
  0x3C, 0xB7, 0x42, 0xE7, 0xFA, 0xC4, 0xF5, 0xD1, 0x04, 0x23, 0xBC, 0xFD, 0xD4, 0xFA, 0xFF, 0xFF,
  0xE6, 0xFB, 0xFF, 0xFF, 0x04, 0x00, 0x00, 0x00, 0x70, 0x00, 0x00, 0x00, 0xA9, 0xF7, 0xFF, 0xFF,
  0x0C, 0x0E, 0x00, 0x00, 0x16, 0xFA, 0xFF, 0xFF, 0x7D, 0x02, 0x00, 0x00, 0xD8, 0xF8, 0xFF, 0xFF,
  0x30, 0x03, 0x00, 0x00, 0x33, 0x08, 0x00, 0x00, 0x4D, 0x02, 0x00, 0x00, 0x58, 0xFC, 0xFF, 0xFF,
  0xAA, 0xF9, 0xFF, 0xFF, 0xB6, 0xFF, 0xFF, 0xFF, 0xEF, 0xFA, 0xFF, 0xFF, 0xD2, 0xFE, 0xFF, 0xFF,
  0xC8, 0x01, 0x00, 0x00, 0xDA, 0x05, 0x00, 0x00, 0x2D, 0xFF, 0xFF, 0xFF, 0xD3, 0x00, 0x00, 0x00,
  0x36, 0xF6, 0xFF, 0xFF, 0x74, 0x06, 0x00, 0x00, 0xFE, 0x0B, 0x00, 0x00, 0xF5, 0xFF, 0xFF, 0xFF,
  0x68, 0x00, 0x00, 0x00, 0xA9, 0xFA, 0xFF, 0xFF, 0xC7, 0xF7, 0xFF, 0xFF, 0xA0, 0xFD, 0xFF, 0xFF,
  0xCA, 0xFB, 0xFF, 0xFF, 0x9F, 0xFB, 0xFF, 0xFF, 0xC8, 0xFF, 0xFF, 0xFF, 0x62, 0xFC, 0xFF, 0xFF,
  0x04, 0x00, 0x00, 0x00, 0x10, 0x03, 0x00, 0x00, 0xF7, 0xCD, 0x12, 0xFD, 0x20, 0x32, 0x22, 0xE6,
  0xE1, 0xEA, 0x14, 0x01, 0xFD, 0xE1, 0x04, 0x02, 0x31, 0xB8, 0x16, 0x15, 0x1E, 0xF8, 0x0D, 0x03,
  0x41, 0xEF, 0x45, 0xF9, 0xD0, 0x1A, 0xCC, 0x23, 0xF3, 0xF4, 0x2A, 0xD3, 0x34, 0xD2, 0xFD, 0x2A,
  0x46, 0xBB, 0x20, 0x0D, 0xE3, 0xE4, 0x08, 0x36, 0xE8, 0x1C, 0xC9, 0xDC, 0xF9, 0xA7, 0xE2, 0xEE,
  0xFA, 0x25, 0x0B, 0xCB, 0x22, 0xEF, 0xF2, 0xD6, 0x46, 0x41, 0x39, 0x1D, 0xDF, 0xB6, 0xF3, 0xCD,
  0xEF, 0x07, 0x22, 0x33, 0xD6, 0xD3, 0x2D, 0x17, 0x51, 0x13, 0xD5, 0xC9, 0x0B, 0x28, 0xE7, 0x46,
  0x0C, 0xFF, 0xC7, 0x0B, 0x37, 0x12, 0x38, 0xB6, 0xED, 0x03, 0xD3, 0x19, 0x3D, 0xED, 0xCE, 0x36,
  0x08, 0x39, 0xCB, 0x06, 0xFB, 0xE2, 0xDB, 0x29, 0x21, 0x26, 0xCA, 0xE2, 0xDB, 0x06, 0x49, 0xF7,
  0x3A, 0x3A, 0x29, 0xCB, 0xD4, 0xF5, 0xF4, 0x07, 0xC6, 0x1D, 0x01, 0x24, 0x1F, 0x38, 0xC9, 0x27,
  0x05, 0x15, 0x43, 0xF1, 0xF4, 0xA0, 0xE6, 0x0B, 0xEC, 0xD8, 0xE7, 0xFA, 0xD2, 0xF5, 0xFF, 0xE3,
  0x06, 0x19, 0xF5, 0x3B, 0xE7, 0x09, 0xC1, 0xDE, 0xE3, 0x0E, 0x3C, 0x28, 0x46, 0xEB, 0x46, 0xC7,
  0xEA, 0x0D, 0xDF, 0xDD, 0x12, 0x3B, 0xC1, 0x09, 0x0F, 0xD1, 0xE6, 0xF7, 0x2C, 0x81, 0xF2, 0x18,
  0xD3, 0xB9, 0x27, 0xD9, 0xFE, 0xF9, 0x40, 0x1F, 0x15, 0x06, 0x06, 0x2F, 0x07, 0x0F, 0xDD, 0xC9,
  0x42, 0x2C, 0xE4, 0xE4, 0x1E, 0xFC, 0x2B, 0x21, 0x2F, 0x1F, 0xE7, 0xC6, 0xE5, 0x40, 0xE2, 0x24,
  0x15, 0x17, 0x27, 0x19, 0x21, 0xD3, 0xC9, 0xF4, 0xB5, 0x38, 0xD8, 0xD3, 0xD5, 0xDD, 0xCB, 0xD2,
  0xFE, 0x07, 0x2B, 0xB1, 0x18, 0xE7, 0x21, 0xF6, 0x06, 0x54, 0xB9, 0xF0, 0x24, 0x99, 0x36, 0x1E,
  0x8A, 0x0A, 0x17, 0x33, 0xE6, 0xC8, 0xFD, 0x34, 0xF9, 0x0C, 0x20, 0x33, 0x3C, 0x11, 0x29, 0xD4,
  0x13, 0x42, 0xEC, 0x25, 0x18, 0x33, 0xEB, 0x10, 0x17, 0xE6, 0xDD, 0x3B, 0x31, 0x10, 0x18, 0xEB,
  0x2D, 0xE3, 0x3C, 0x2E, 0xE7, 0x04, 0x13, 0x25, 0xF6, 0xCB, 0x25, 0x05, 0x30, 0xD7, 0x2A, 0xF5,
  0xD0, 0xCA, 0x1B, 0xBC, 0x15, 0x4B, 0x1B, 0x04, 0x0D, 0x43, 0xEC, 0x0B, 0xD3, 0x13, 0x41, 0xDE,
  0xED, 0xDB, 0xAD, 0xD9, 0x10, 0xE6, 0xF8, 0x41, 0x02, 0xD2, 0x17, 0xB7, 0xF4, 0x11, 0xF9, 0xF6,
  0x24, 0xF1, 0x20, 0x39, 0x25, 0x0F, 0xB3, 0x23, 0xEB, 0xEE, 0x09, 0xFD, 0xFE, 0xBC, 0xD9, 0xFF,
  0xC7, 0x19, 0x0E, 0xF8, 0xDA, 0xCD, 0x29, 0xBC, 0x9B, 0xD3, 0x05, 0x3C, 0xC2, 0x05, 0x21, 0x0E,
  0x32, 0xFF, 0xC5, 0xCA, 0xB5, 0x08, 0x47, 0x29, 0x35, 0xFD, 0xD2, 0xF1, 0x08, 0x1A, 0x25, 0x07,
  0xC7, 0xDA, 0xE2, 0xDB, 0x19, 0x1F, 0x14, 0xDB, 0x0B, 0x0F, 0x49, 0x27, 0xF5, 0xDF, 0xC6, 0x38,
  0xCB, 0x17, 0x30, 0xBD, 0x0D, 0xCC, 0x29, 0x25, 0xCC, 0xFE, 0xE6, 0x0F, 0x07, 0x50, 0xAF, 0xC2,
  0xFD, 0xCD, 0xDF, 0xC7, 0x12, 0xD8, 0xF9, 0x47, 0x1C, 0xFE, 0x25, 0xF8, 0x31, 0xCE, 0xDE, 0x0F,
  0xC0, 0xD3, 0xD2, 0x18, 0x23, 0x11, 0xD8, 0xF4, 0x15, 0xEC, 0xDA, 0xC4, 0xFC, 0xC6, 0xE3, 0x11,
  0x0B, 0x06, 0xF9, 0x1B, 0xFB, 0xED, 0x27, 0xFB, 0xC5, 0xF5, 0xC5, 0xFC, 0xD2, 0x3A, 0x3D, 0xFE,
  0x22, 0x19, 0x0A, 0x37, 0x39, 0x2D, 0xE5, 0xD7, 0x43, 0x3F, 0x22, 0x11, 0x1B, 0x4A, 0x1F, 0xFA,
  0x0E, 0xE4, 0xED, 0x03, 0x06, 0xE3, 0x3C, 0xF5, 0x09, 0xED, 0xBD, 0x12, 0x0C, 0x01, 0xE2, 0x0C,
  0x19, 0x22, 0xFA, 0x1F, 0x1D, 0x25, 0xE0, 0xD9, 0x0A, 0x4F, 0x3A, 0x44, 0x24, 0x3A, 0xD9, 0xDC,
  0xD0, 0x2E, 0x29, 0x1C, 0x10, 0x0D, 0x48, 0x28, 0x10, 0xF7, 0xC7, 0x39, 0x17, 0x18, 0x30, 0xE4,
  0xE9, 0x1D, 0x45, 0xEF, 0xF0, 0xDE, 0xC9, 0xEB, 0xE3, 0x24, 0x25, 0x3C, 0x30, 0xC1, 0x18, 0xE4,
  0x32, 0xEA, 0xCB, 0x31, 0xC2, 0x44, 0xE8, 0xBC, 0xDB, 0x04, 0x23, 0x09, 0xD3, 0xC9, 0x2F, 0xF6,
  0xC0, 0xC2, 0xE8, 0x06, 0x1E, 0x14, 0x4C, 0x0F, 0xEC, 0xD7, 0x10, 0xE6, 0xE9, 0xC8, 0x30, 0xDD,
  0xDD, 0xF2, 0x08, 0x1E, 0xEA, 0x14, 0x0F, 0x2C, 0xC9, 0xDE, 0x46, 0x25, 0x3B, 0x17, 0x12, 0xB7,
  0x0A, 0xF5, 0x05, 0xE3, 0x37, 0xC9, 0x10, 0xCE, 0x3E, 0xF4, 0xA6, 0xBF, 0x14, 0x00, 0x29, 0xDD,
  0xB0, 0xE8, 0xC5, 0xEC, 0x45, 0x2D, 0xD0, 0xE0, 0x10, 0x28, 0xE5, 0x0D, 0x39, 0xE7, 0xEE, 0xFA,
  0xEC, 0x4B, 0x00, 0xDE, 0xEA, 0xEE, 0x0A, 0x2B, 0x1A, 0x1F, 0x01, 0x1B, 0x19, 0xEF, 0x23, 0x11,
  0xFB, 0xAC, 0xDD, 0xE4, 0xC7, 0x0A, 0x19, 0xBD, 0xDC, 0x39, 0x32, 0x3D, 0xD4, 0x19, 0xFC, 0x31,
  0x03, 0x0B, 0xDC, 0xB6, 0xC4, 0x2B, 0xF6, 0x13, 0xF0, 0xF8, 0x40, 0xD9, 0xE6, 0xBE, 0x29, 0x2B,
  0x2F, 0x4A, 0xF2, 0x0C, 0x4A, 0xB6, 0x31, 0xF4, 0xEF, 0x18, 0xD8, 0x06, 0xC2, 0xF3, 0x2B, 0xFE,
  0x02, 0x22, 0xDC, 0x3C, 0x19, 0xFA, 0xE7, 0x29, 0x35, 0x32, 0x40, 0xE0, 0x00, 0xCF, 0x07, 0xD9,
  0x20, 0xDC, 0x36, 0x34, 0x06, 0x0E, 0xB5, 0x1C, 0xF8, 0xD0, 0xC5, 0x3B, 0xBD, 0xBB, 0x4B, 0x2F,
  0x2D, 0xF6, 0xF5, 0xE9, 0xF1, 0x21, 0x13, 0x00, 0xD7, 0x18, 0x33, 0xD4, 0x3A, 0xE0, 0x40, 0x00,
  0xED, 0x08, 0x03, 0xE9, 0x3E, 0xFB, 0x43, 0xDB, 0xDB, 0xD9, 0x35, 0xE9, 0x03, 0x16, 0x46, 0xDB,
  0xC8, 0x34, 0x1E, 0x32, 0xEB, 0x0A, 0xCD, 0x2C, 0xE6, 0x44, 0x43, 0x23, 0x08, 0xCD, 0xBD, 0xF3,
  0x23, 0x03, 0x3E, 0x41, 0xF4, 0xEA, 0x0D, 0xF7, 0x02, 0xB1, 0xDC, 0x0D, 0x3E, 0x1B, 0xC1, 0x37,
  0xF6, 0xD0, 0xE6, 0x3E, 0xCE, 0xDC, 0xE3, 0xDE, 0x70, 0xFE, 0xFF, 0xFF, 0x82, 0xFF, 0xFF, 0xFF,
  0x04, 0x00, 0x00, 0x00, 0x70, 0x00, 0x00, 0x00, 0x38, 0x00, 0x00, 0x00, 0x43, 0xFD, 0xFF, 0xFF,
  0xBC, 0x04, 0x00, 0x00, 0x23, 0x04, 0x00, 0x00, 0xA3, 0xFF, 0xFF, 0xFF, 0x1C, 0x03, 0x00, 0x00,
  0x68, 0x00, 0x00, 0x00, 0xEB, 0x05, 0x00, 0x00, 0x6C, 0xFE, 0xFF, 0xFF, 0x43, 0xFE, 0xFF, 0xFF,
  0xE9, 0xFC, 0xFF, 0xFF, 0x2F, 0xFF, 0xFF, 0xFF, 0x0A, 0x03, 0x00, 0x00, 0x06, 0x01, 0x00, 0x00,
  0xA1, 0x00, 0x00, 0x00, 0x1C, 0x04, 0x00, 0x00, 0xC6, 0x01, 0x00, 0x00, 0x4C, 0xFD, 0xFF, 0xFF,
  0xE1, 0x01, 0x00, 0x00, 0x86, 0xFE, 0xFF, 0xFF, 0x38, 0xFF, 0xFF, 0xFF, 0x5F, 0xFC, 0xFF, 0xFF,
  0x10, 0xFF, 0xFF, 0xFF, 0xD9, 0x02, 0x00, 0x00, 0x16, 0xFE, 0xFF, 0xFF, 0xF5, 0x00, 0x00, 0x00,
  0x74, 0x00, 0x00, 0x00, 0xD6, 0x00, 0x00, 0x00, 0x00, 0x00, 0x06, 0x00, 0x08, 0x00, 0x04, 0x00,
  0x06, 0x00, 0x00, 0x00, 0x04, 0x00, 0x00, 0x00, 0x70, 0x00, 0x00, 0x00, 0xFA, 0xF3, 0xEE, 0xAD,
  0xEA, 0x42, 0x9E, 0xE5, 0x46, 0x5C, 0xC3, 0xEC, 0xB8, 0x06, 0x67, 0xB9, 0xDB, 0xD5, 0xBF, 0x20,
  0xC1, 0xFA, 0x0C, 0x42, 0xEB, 0x9C, 0x5C, 0xA0, 0x6B, 0x35, 0x3C, 0xED, 0x05, 0x49, 0xA1, 0x33,
  0xDF, 0x61, 0x04, 0xCC, 0x3A, 0x3C, 0x21, 0x0A, 0x0F, 0x48, 0x9C, 0xFB, 0x00, 0x25, 0x36, 0xFE,
  0x03, 0xA6, 0x4E, 0x0B, 0xAF, 0x33, 0xF5, 0x11, 0x08, 0x26, 0x6D, 0x04, 0xF5, 0x21, 0x17, 0x5D,
  0x75, 0xD4, 0x05, 0xE8, 0xC2, 0x50, 0xEC, 0xB2, 0xA3, 0x5A, 0xE1, 0x30, 0x31, 0xB7, 0xAC, 0x53,
  0x26, 0x08, 0xCA, 0xF2, 0x1F, 0x47, 0x3C, 0x1E, 0x63, 0x47, 0xEE, 0xE4, 0x06, 0xCE, 0xD9, 0xB4,
  0x7F, 0x4E, 0xF2, 0x01, 0xA5, 0xC5, 0x42, 0x15, 0xED, 0x47, 0xDD, 0x3B, 0x74, 0xFF, 0xFF, 0xFF,
  0x78, 0xFF, 0xFF, 0xFF, 0x0F, 0x00, 0x00, 0x00, 0x4D, 0x4C, 0x49, 0x52, 0x20, 0x43, 0x6F, 0x6E,
  0x76, 0x65, 0x72, 0x74, 0x65, 0x64, 0x2E, 0x00, 0x01, 0x00, 0x00, 0x00, 0x14, 0x00, 0x00, 0x00,
  0x00, 0x00, 0x0E, 0x00, 0x18, 0x00, 0x14, 0x00, 0x10, 0x00, 0x0C, 0x00, 0x08, 0x00, 0x04, 0x00,
  0x0E, 0x00, 0x00, 0x00, 0x14, 0x00, 0x00, 0x00, 0x1C, 0x00, 0x00, 0x00, 0xBC, 0x01, 0x00, 0x00,
  0xC0, 0x01, 0x00, 0x00, 0xC4, 0x01, 0x00, 0x00, 0x04, 0x00, 0x00, 0x00, 0x6D, 0x61, 0x69, 0x6E,
  0x00, 0x00, 0x00, 0x00, 0x07, 0x00, 0x00, 0x00, 0x64, 0x01, 0x00, 0x00, 0x1C, 0x01, 0x00, 0x00,
  0xE4, 0x00, 0x00, 0x00, 0xAC, 0x00, 0x00, 0x00, 0x74, 0x00, 0x00, 0x00, 0x3C, 0x00, 0x00, 0x00,
  0x04, 0x00, 0x00, 0x00, 0xC6, 0xFE, 0xFF, 0xFF, 0x14, 0x00, 0x00, 0x00, 0x00, 0x00, 0x00, 0x08,
  0x10, 0x00, 0x00, 0x00, 0x14, 0x00, 0x00, 0x00, 0x04, 0x00, 0x04, 0x00, 0x04, 0x00, 0x00, 0x00,
  0x01, 0x00, 0x00, 0x00, 0x15, 0x00, 0x00, 0x00, 0x03, 0x00, 0x00, 0x00, 0x12, 0x00, 0x00, 0x00,
  0x13, 0x00, 0x00, 0x00, 0x14, 0x00, 0x00, 0x00, 0xFA, 0xFE, 0xFF, 0xFF, 0x10, 0x00, 0x00, 0x00,
  0x00, 0x00, 0x00, 0x08, 0x10, 0x00, 0x00, 0x00, 0x14, 0x00, 0x00, 0x00, 0xEA, 0xFE, 0xFF, 0xFF,
  0x00, 0x00, 0x00, 0x01, 0x01, 0x00, 0x00, 0x00, 0x12, 0x00, 0x00, 0x00, 0x03, 0x00, 0x00, 0x00,
  0x0F, 0x00, 0x00, 0x00, 0x10, 0x00, 0x00, 0x00, 0x11, 0x00, 0x00, 0x00, 0x2E, 0xFF, 0xFF, 0xFF,
  0x10, 0x00, 0x00, 0x00, 0x00, 0x00, 0x00, 0x08, 0x10, 0x00, 0x00, 0x00, 0x14, 0x00, 0x00, 0x00,
  0x1E, 0xFF, 0xFF, 0xFF, 0x00, 0x00, 0x00, 0x01, 0x01, 0x00, 0x00, 0x00, 0x0F, 0x00, 0x00, 0x00,
  0x03, 0x00, 0x00, 0x00, 0x0C, 0x00, 0x00, 0x00, 0x0D, 0x00, 0x00, 0x00, 0x0E, 0x00, 0x00, 0x00,
  0x62, 0xFF, 0xFF, 0xFF, 0x10, 0x00, 0x00, 0x00, 0x00, 0x00, 0x00, 0x08, 0x10, 0x00, 0x00, 0x00,
  0x14, 0x00, 0x00, 0x00, 0x52, 0xFF, 0xFF, 0xFF, 0x00, 0x00, 0x00, 0x01, 0x01, 0x00, 0x00, 0x00,
  0x0C, 0x00, 0x00, 0x00, 0x03, 0x00, 0x00, 0x00, 0x09, 0x00, 0x00, 0x00, 0x0A, 0x00, 0x00, 0x00,
  0x0B, 0x00, 0x00, 0x00, 0x96, 0xFF, 0xFF, 0xFF, 0x10, 0x00, 0x00, 0x00, 0x00, 0x00, 0x00, 0x08,
  0x10, 0x00, 0x00, 0x00, 0x14, 0x00, 0x00, 0x00, 0x86, 0xFF, 0xFF, 0xFF, 0x00, 0x00, 0x00, 0x01,
  0x01, 0x00, 0x00, 0x00, 0x09, 0x00, 0x00, 0x00, 0x03, 0x00, 0x00, 0x00, 0x06, 0x00, 0x00, 0x00,
  0x07, 0x00, 0x00, 0x00, 0x08, 0x00, 0x00, 0x00, 0xCA, 0xFF, 0xFF, 0xFF, 0x10, 0x00, 0x00, 0x00,
  0x00, 0x00, 0x00, 0x08, 0x10, 0x00, 0x00, 0x00, 0x14, 0x00, 0x00, 0x00, 0xBA, 0xFF, 0xFF, 0xFF,
  0x00, 0x00, 0x00, 0x01, 0x01, 0x00, 0x00, 0x00, 0x06, 0x00, 0x00, 0x00, 0x03, 0x00, 0x00, 0x00,
  0x03, 0x00, 0x00, 0x00, 0x04, 0x00, 0x00, 0x00, 0x05, 0x00, 0x00, 0x00, 0x00, 0x00, 0x0E, 0x00,
  0x16, 0x00, 0x00, 0x00, 0x10, 0x00, 0x0C, 0x00, 0x0B, 0x00, 0x04, 0x00, 0x0E, 0x00, 0x00, 0x00,
  0x18, 0x00, 0x00, 0x00, 0x00, 0x00, 0x00, 0x08, 0x18, 0x00, 0x00, 0x00, 0x1C, 0x00, 0x00, 0x00,
  0x00, 0x00, 0x06, 0x00, 0x08, 0x00, 0x07, 0x00, 0x06, 0x00, 0x00, 0x00, 0x00, 0x00, 0x00, 0x01,
  0x01, 0x00, 0x00, 0x00, 0x03, 0x00, 0x00, 0x00, 0x03, 0x00, 0x00, 0x00, 0x00, 0x00, 0x00, 0x00,
  0x01, 0x00, 0x00, 0x00, 0x02, 0x00, 0x00, 0x00, 0x01, 0x00, 0x00, 0x00, 0x15, 0x00, 0x00, 0x00,
  0x01, 0x00, 0x00, 0x00, 0x00, 0x00, 0x00, 0x00, 0x16, 0x00, 0x00, 0x00, 0xFC, 0x0C, 0x00, 0x00,
  0x34, 0x0C, 0x00, 0x00, 0xB8, 0x0B, 0x00, 0x00, 0xFC, 0x0A, 0x00, 0x00, 0x48, 0x0A, 0x00, 0x00,
  0xCC, 0x09, 0x00, 0x00, 0x08, 0x09, 0x00, 0x00, 0x54, 0x08, 0x00, 0x00, 0xF0, 0x07, 0x00, 0x00,
  0x2C, 0x07, 0x00, 0x00, 0x78, 0x06, 0x00, 0x00, 0x14, 0x06, 0x00, 0x00, 0x50, 0x05, 0x00, 0x00,
  0x9C, 0x04, 0x00, 0x00, 0x38, 0x04, 0x00, 0x00, 0x74, 0x03, 0x00, 0x00, 0xC0, 0x02, 0x00, 0x00,
  0x5C, 0x02, 0x00, 0x00, 0x98, 0x01, 0x00, 0x00, 0xE4, 0x00, 0x00, 0x00, 0x80, 0x00, 0x00, 0x00,
  0x04, 0x00, 0x00, 0x00, 0x72, 0xF3, 0xFF, 0xFF, 0x00, 0x00, 0x00, 0x01, 0x18, 0x00, 0x00, 0x00,
  0x20, 0x00, 0x00, 0x00, 0x3C, 0x00, 0x00, 0x00, 0x16, 0x00, 0x00, 0x00, 0x00, 0x00, 0x00, 0x09,
  0x50, 0x00, 0x00, 0x00, 0x02, 0x00, 0x00, 0x00, 0xFF, 0xFF, 0xFF, 0xFF, 0x01, 0x00, 0x00, 0x00,
  0x5C, 0xF3, 0xFF, 0xFF, 0x08, 0x00, 0x00, 0x00, 0x10, 0x00, 0x00, 0x00, 0x01, 0x00, 0x00, 0x00,
  0xEE, 0xFF, 0xFF, 0xFF, 0xFF, 0xFF, 0xFF, 0xFF, 0x01, 0x00, 0x00, 0x00, 0x2C, 0x01, 0x58, 0x3C,
  0x19, 0x00, 0x00, 0x00, 0x53, 0x74, 0x61, 0x74, 0x65, 0x66, 0x75, 0x6C, 0x50, 0x61, 0x72, 0x74,
  0x69, 0x74, 0x69, 0x6F, 0x6E, 0x65, 0x64, 0x43, 0x61, 0x6C, 0x6C, 0x3A, 0x30, 0x00, 0x00, 0x00,
  0x02, 0x00, 0x00, 0x00, 0x01, 0x00, 0x00, 0x00, 0x01, 0x00, 0x00, 0x00, 0xAE, 0xF4, 0xFF, 0xFF,
  0x00, 0x00, 0x00, 0x01, 0x14, 0x00, 0x00, 0x00, 0x34, 0x00, 0x00, 0x00, 0x15, 0x00, 0x00, 0x00,
  0x00, 0x00, 0x00, 0x02, 0x40, 0x00, 0x00, 0x00, 0xC4, 0xF3, 0xFF, 0xFF, 0x08, 0x00, 0x00, 0x00,
  0x14, 0x00, 0x00, 0x00, 0x01, 0x00, 0x00, 0x00, 0x00, 0x00, 0x00, 0x00, 0x00, 0x00, 0x00, 0x00,
  0x00, 0x00, 0x00, 0x00, 0x01, 0x00, 0x00, 0x00, 0x9D, 0xE8, 0x0F, 0x38, 0x12, 0x00, 0x00, 0x00,
  0x74, 0x66, 0x6C, 0x2E, 0x70, 0x73, 0x65, 0x75, 0x64, 0x6F, 0x5F, 0x71, 0x63, 0x6F, 0x6E, 0x73,
  0x74, 0x31, 0x00, 0x00, 0x01, 0x00, 0x00, 0x00, 0x01, 0x00, 0x00, 0x00, 0x0E, 0xF5, 0xFF, 0xFF,
  0x00, 0x00, 0x00, 0x01, 0x14, 0x00, 0x00, 0x00, 0x34, 0x00, 0x00, 0x00, 0x14, 0x00, 0x00, 0x00,
  0x00, 0x00, 0x00, 0x09, 0x8C, 0x00, 0x00, 0x00, 0x24, 0xF4, 0xFF, 0xFF, 0x08, 0x00, 0x00, 0x00,
  0x14, 0x00, 0x00, 0x00, 0x01, 0x00, 0x00, 0x00, 0x00, 0x00, 0x00, 0x00, 0x00, 0x00, 0x00, 0x00,
  0x00, 0x00, 0x00, 0x00, 0x01, 0x00, 0x00, 0x00, 0xA0, 0x31, 0xE0, 0x3B, 0x5F, 0x00, 0x00, 0x00,
  0x73, 0x65, 0x71, 0x75, 0x65, 0x6E, 0x74, 0x69, 0x61, 0x6C, 0x2F, 0x71, 0x75, 0x61, 0x6E, 0x74,
  0x5F, 0x64, 0x65, 0x6E, 0x73, 0x65, 0x5F, 0x36, 0x2F, 0x4D, 0x61, 0x74, 0x4D, 0x75, 0x6C, 0x3B,
  0x73, 0x65, 0x71, 0x75, 0x65, 0x6E, 0x74, 0x69, 0x61, 0x6C, 0x2F, 0x71, 0x75, 0x61, 0x6E, 0x74,
  0x5F, 0x64, 0x65, 0x6E, 0x73, 0x65, 0x5F, 0x36, 0x2F, 0x4C, 0x61, 0x73, 0x74, 0x56, 0x61, 0x6C,
  0x75, 0x65, 0x51, 0x75, 0x61, 0x6E, 0x74, 0x2F, 0x46, 0x61, 0x6B, 0x65, 0x51, 0x75, 0x61, 0x6E,
  0x74, 0x57, 0x69, 0x74, 0x68, 0x4D, 0x69, 0x6E, 0x4D, 0x61, 0x78, 0x56, 0x61, 0x72, 0x73, 0x00,
  0x02, 0x00, 0x00, 0x00, 0x01, 0x00, 0x00, 0x00, 0x1C, 0x00, 0x00, 0x00, 0xFA, 0xF4, 0xFF, 0xFF,
  0x00, 0x00, 0x00, 0x01, 0x18, 0x00, 0x00, 0x00, 0x20, 0x00, 0x00, 0x00, 0x40, 0x00, 0x00, 0x00,
  0x13, 0x00, 0x00, 0x00, 0x00, 0x00, 0x00, 0x09, 0x98, 0x00, 0x00, 0x00, 0x02, 0x00, 0x00, 0x00,
  0xFF, 0xFF, 0xFF, 0xFF, 0x1C, 0x00, 0x00, 0x00, 0xE4, 0xF4, 0xFF, 0xFF, 0x08, 0x00, 0x00, 0x00,
  0x14, 0x00, 0x00, 0x00, 0x01, 0x00, 0x00, 0x00, 0x80, 0xFF, 0xFF, 0xFF, 0xFF, 0xFF, 0xFF, 0xFF,
  0x00, 0x00, 0x00, 0x00, 0x01, 0x00, 0x00, 0x00, 0x28, 0x53, 0xA4, 0x3B, 0x5E, 0x00, 0x00, 0x00,
  0x73, 0x65, 0x71, 0x75, 0x65, 0x6E, 0x74, 0x69, 0x61, 0x6C, 0x2F, 0x71, 0x75, 0x61, 0x6E, 0x74,
  0x5F, 0x64, 0x65, 0x6E, 0x73, 0x65, 0x5F, 0x35, 0x2F, 0x4D, 0x61, 0x74, 0x4D, 0x75, 0x6C, 0x3B,
  0x73, 0x65, 0x71, 0x75, 0x65, 0x6E, 0x74, 0x69, 0x61, 0x6C, 0x2F, 0x71, 0x75, 0x61, 0x6E, 0x74,
  0x5F, 0x64, 0x65, 0x6E, 0x73, 0x65, 0x5F, 0x35, 0x2F, 0x52, 0x65, 0x6C, 0x75, 0x3B, 0x73, 0x65,
  0x71, 0x75, 0x65, 0x6E, 0x74, 0x69, 0x61, 0x6C, 0x2F, 0x71, 0x75, 0x61, 0x6E, 0x74, 0x5F, 0x64,
  0x65, 0x6E, 0x73, 0x65, 0x5F, 0x35, 0x2F, 0x42, 0x69, 0x61, 0x73, 0x41, 0x64, 0x64, 0x00, 0x00,
  0x02, 0x00, 0x00, 0x00, 0x01, 0x00, 0x00, 0x00, 0x1C, 0x00, 0x00, 0x00, 0x7E, 0xF6, 0xFF, 0xFF,
  0x00, 0x00, 0x00, 0x01, 0x14, 0x00, 0x00, 0x00, 0x34, 0x00, 0x00, 0x00, 0x12, 0x00, 0x00, 0x00,
  0x00, 0x00, 0x00, 0x02, 0x40, 0x00, 0x00, 0x00, 0x94, 0xF5, 0xFF, 0xFF, 0x08, 0x00, 0x00, 0x00,
  0x14, 0x00, 0x00, 0x00, 0x01, 0x00, 0x00, 0x00, 0x00, 0x00, 0x00, 0x00, 0x00, 0x00, 0x00, 0x00,
  0x00, 0x00, 0x00, 0x00, 0x01, 0x00, 0x00, 0x00, 0xEB, 0x60, 0x99, 0x37, 0x12, 0x00, 0x00, 0x00,
  0x74, 0x66, 0x6C, 0x2E, 0x70, 0x73, 0x65, 0x75, 0x64, 0x6F, 0x5F, 0x71, 0x63, 0x6F, 0x6E, 0x73,
  0x74, 0x32, 0x00, 0x00, 0x01, 0x00, 0x00, 0x00, 0x1C, 0x00, 0x00, 0x00, 0xDE, 0xF6, 0xFF, 0xFF,
  0x00, 0x00, 0x00, 0x01, 0x14, 0x00, 0x00, 0x00, 0x34, 0x00, 0x00, 0x00, 0x11, 0x00, 0x00, 0x00,
  0x00, 0x00, 0x00, 0x09, 0x8C, 0x00, 0x00, 0x00, 0xF4, 0xF5, 0xFF, 0xFF, 0x08, 0x00, 0x00, 0x00,
  0x14, 0x00, 0x00, 0x00, 0x01, 0x00, 0x00, 0x00, 0x00, 0x00, 0x00, 0x00, 0x00, 0x00, 0x00, 0x00,
  0x00, 0x00, 0x00, 0x00, 0x01, 0x00, 0x00, 0x00, 0xFE, 0x3B, 0xB1, 0x3B, 0x5F, 0x00, 0x00, 0x00,
  0x73, 0x65, 0x71, 0x75, 0x65, 0x6E, 0x74, 0x69, 0x61, 0x6C, 0x2F, 0x71, 0x75, 0x61, 0x6E, 0x74,
  0x5F, 0x64, 0x65, 0x6E, 0x73, 0x65, 0x5F, 0x35, 0x2F, 0x4D, 0x61, 0x74, 0x4D, 0x75, 0x6C, 0x3B,
  0x73, 0x65, 0x71, 0x75, 0x65, 0x6E, 0x74, 0x69, 0x61, 0x6C, 0x2F, 0x71, 0x75, 0x61, 0x6E, 0x74,
  0x5F, 0x64, 0x65, 0x6E, 0x73, 0x65, 0x5F, 0x35, 0x2F, 0x4C, 0x61, 0x73, 0x74, 0x56, 0x61, 0x6C,
  0x75, 0x65, 0x51, 0x75, 0x61, 0x6E, 0x74, 0x2F, 0x46, 0x61, 0x6B, 0x65, 0x51, 0x75, 0x61, 0x6E,
  0x74, 0x57, 0x69, 0x74, 0x68, 0x4D, 0x69, 0x6E, 0x4D, 0x61, 0x78, 0x56, 0x61, 0x72, 0x73, 0x00,
  0x02, 0x00, 0x00, 0x00, 0x1C, 0x00, 0x00, 0x00, 0x1C, 0x00, 0x00, 0x00, 0xCA, 0xF6, 0xFF, 0xFF,
  0x00, 0x00, 0x00, 0x01, 0x18, 0x00, 0x00, 0x00, 0x20, 0x00, 0x00, 0x00, 0x40, 0x00, 0x00, 0x00,
  0x10, 0x00, 0x00, 0x00, 0x00, 0x00, 0x00, 0x09, 0x98, 0x00, 0x00, 0x00, 0x02, 0x00, 0x00, 0x00,
  0xFF, 0xFF, 0xFF, 0xFF, 0x1C, 0x00, 0x00, 0x00, 0xB4, 0xF6, 0xFF, 0xFF, 0x08, 0x00, 0x00, 0x00,
  0x14, 0x00, 0x00, 0x00, 0x01, 0x00, 0x00, 0x00, 0x80, 0xFF, 0xFF, 0xFF, 0xFF, 0xFF, 0xFF, 0xFF,
  0x00, 0x00, 0x00, 0x00, 0x01, 0x00, 0x00, 0x00, 0xD9, 0x8A, 0x5D, 0x3B, 0x5E, 0x00, 0x00, 0x00,
  0x73, 0x65, 0x71, 0x75, 0x65, 0x6E, 0x74, 0x69, 0x61, 0x6C, 0x2F, 0x71, 0x75, 0x61, 0x6E, 0x74,
  0x5F, 0x64, 0x65, 0x6E, 0x73, 0x65, 0x5F, 0x34, 0x2F, 0x4D, 0x61, 0x74, 0x4D, 0x75, 0x6C, 0x3B,
  0x73, 0x65, 0x71, 0x75, 0x65, 0x6E, 0x74, 0x69, 0x61, 0x6C, 0x2F, 0x71, 0x75, 0x61, 0x6E, 0x74,
  0x5F, 0x64, 0x65, 0x6E, 0x73, 0x65, 0x5F, 0x34, 0x2F, 0x52, 0x65, 0x6C, 0x75, 0x3B, 0x73, 0x65,
  0x71, 0x75, 0x65, 0x6E, 0x74, 0x69, 0x61, 0x6C, 0x2F, 0x71, 0x75, 0x61, 0x6E, 0x74, 0x5F, 0x64,
  0x65, 0x6E, 0x73, 0x65, 0x5F, 0x34, 0x2F, 0x42, 0x69, 0x61, 0x73, 0x41, 0x64, 0x64, 0x00, 0x00,
  0x02, 0x00, 0x00, 0x00, 0x01, 0x00, 0x00, 0x00, 0x1C, 0x00, 0x00, 0x00, 0x4E, 0xF8, 0xFF, 0xFF,
  0x00, 0x00, 0x00, 0x01, 0x14, 0x00, 0x00, 0x00, 0x34, 0x00, 0x00, 0x00, 0x0F, 0x00, 0x00, 0x00,
  0x00, 0x00, 0x00, 0x02, 0x40, 0x00, 0x00, 0x00, 0x64, 0xF7, 0xFF, 0xFF, 0x08, 0x00, 0x00, 0x00,
  0x14, 0x00, 0x00, 0x00, 0x01, 0x00, 0x00, 0x00, 0x00, 0x00, 0x00, 0x00, 0x00, 0x00, 0x00, 0x00,
  0x00, 0x00, 0x00, 0x00, 0x01, 0x00, 0x00, 0x00, 0x9D, 0x83, 0xC8, 0x37, 0x12, 0x00, 0x00, 0x00,
  0x74, 0x66, 0x6C, 0x2E, 0x70, 0x73, 0x65, 0x75, 0x64, 0x6F, 0x5F, 0x71, 0x63, 0x6F, 0x6E, 0x73,
  0x74, 0x33, 0x00, 0x00, 0x01, 0x00, 0x00, 0x00, 0x1C, 0x00, 0x00, 0x00, 0xAE, 0xF8, 0xFF, 0xFF,
  0x00, 0x00, 0x00, 0x01, 0x14, 0x00, 0x00, 0x00, 0x34, 0x00, 0x00, 0x00, 0x0E, 0x00, 0x00, 0x00,
  0x00, 0x00, 0x00, 0x09, 0x8C, 0x00, 0x00, 0x00, 0xC4, 0xF7, 0xFF, 0xFF, 0x08, 0x00, 0x00, 0x00,
  0x14, 0x00, 0x00, 0x00, 0x01, 0x00, 0x00, 0x00, 0x00, 0x00, 0x00, 0x00, 0x00, 0x00, 0x00, 0x00,
  0x00, 0x00, 0x00, 0x00, 0x01, 0x00, 0x00, 0x00, 0xDD, 0x72, 0xB9, 0x3B, 0x5F, 0x00, 0x00, 0x00,
  0x73, 0x65, 0x71, 0x75, 0x65, 0x6E, 0x74, 0x69, 0x61, 0x6C, 0x2F, 0x71, 0x75, 0x61, 0x6E, 0x74,
  0x5F, 0x64, 0x65, 0x6E, 0x73, 0x65, 0x5F, 0x34, 0x2F, 0x4D, 0x61, 0x74, 0x4D, 0x75, 0x6C, 0x3B,
  0x73, 0x65, 0x71, 0x75, 0x65, 0x6E, 0x74, 0x69, 0x61, 0x6C, 0x2F, 0x71, 0x75, 0x61, 0x6E, 0x74,
  0x5F, 0x64, 0x65, 0x6E, 0x73, 0x65, 0x5F, 0x34, 0x2F, 0x4C, 0x61, 0x73, 0x74, 0x56, 0x61, 0x6C,
  0x75, 0x65, 0x51, 0x75, 0x61, 0x6E, 0x74, 0x2F, 0x46, 0x61, 0x6B, 0x65, 0x51, 0x75, 0x61, 0x6E,
  0x74, 0x57, 0x69, 0x74, 0x68, 0x4D, 0x69, 0x6E, 0x4D, 0x61, 0x78, 0x56, 0x61, 0x72, 0x73, 0x00,
  0x02, 0x00, 0x00, 0x00, 0x1C, 0x00, 0x00, 0x00, 0x1C, 0x00, 0x00, 0x00, 0x9A, 0xF8, 0xFF, 0xFF,
  0x00, 0x00, 0x00, 0x01, 0x18, 0x00, 0x00, 0x00, 0x20, 0x00, 0x00, 0x00, 0x40, 0x00, 0x00, 0x00,
  0x0D, 0x00, 0x00, 0x00, 0x00, 0x00, 0x00, 0x09, 0x98, 0x00, 0x00, 0x00, 0x02, 0x00, 0x00, 0x00,
  0xFF, 0xFF, 0xFF, 0xFF, 0x1C, 0x00, 0x00, 0x00, 0x84, 0xF8, 0xFF, 0xFF, 0x08, 0x00, 0x00, 0x00,
  0x14, 0x00, 0x00, 0x00, 0x01, 0x00, 0x00, 0x00, 0x80, 0xFF, 0xFF, 0xFF, 0xFF, 0xFF, 0xFF, 0xFF,
  0x00, 0x00, 0x00, 0x00, 0x01, 0x00, 0x00, 0x00, 0xFF, 0x65, 0x8A, 0x3B, 0x5E, 0x00, 0x00, 0x00,
  0x73, 0x65, 0x71, 0x75, 0x65, 0x6E, 0x74, 0x69, 0x61, 0x6C, 0x2F, 0x71, 0x75, 0x61, 0x6E, 0x74,
  0x5F, 0x64, 0x65, 0x6E, 0x73, 0x65, 0x5F, 0x33, 0x2F, 0x4D, 0x61, 0x74, 0x4D, 0x75, 0x6C, 0x3B,
  0x73, 0x65, 0x71, 0x75, 0x65, 0x6E, 0x74, 0x69, 0x61, 0x6C, 0x2F, 0x71, 0x75, 0x61, 0x6E, 0x74,
  0x5F, 0x64, 0x65, 0x6E, 0x73, 0x65, 0x5F, 0x33, 0x2F, 0x52, 0x65, 0x6C, 0x75, 0x3B, 0x73, 0x65,
  0x71, 0x75, 0x65, 0x6E, 0x74, 0x69, 0x61, 0x6C, 0x2F, 0x71, 0x75, 0x61, 0x6E, 0x74, 0x5F, 0x64,
  0x65, 0x6E, 0x73, 0x65, 0x5F, 0x33, 0x2F, 0x42, 0x69, 0x61, 0x73, 0x41, 0x64, 0x64, 0x00, 0x00,
  0x02, 0x00, 0x00, 0x00, 0x01, 0x00, 0x00, 0x00, 0x1C, 0x00, 0x00, 0x00, 0x1E, 0xFA, 0xFF, 0xFF,
  0x00, 0x00, 0x00, 0x01, 0x14, 0x00, 0x00, 0x00, 0x34, 0x00, 0x00, 0x00, 0x0C, 0x00, 0x00, 0x00,
  0x00, 0x00, 0x00, 0x02, 0x40, 0x00, 0x00, 0x00, 0x34, 0xF9, 0xFF, 0xFF, 0x08, 0x00, 0x00, 0x00,
  0x14, 0x00, 0x00, 0x00, 0x01, 0x00, 0x00, 0x00, 0x00, 0x00, 0x00, 0x00, 0x00, 0x00, 0x00, 0x00,
  0x00, 0x00, 0x00, 0x00, 0x01, 0x00, 0x00, 0x00, 0x5B, 0x8F, 0xE9, 0x37, 0x12, 0x00, 0x00, 0x00,
  0x74, 0x66, 0x6C, 0x2E, 0x70, 0x73, 0x65, 0x75, 0x64, 0x6F, 0x5F, 0x71, 0x63, 0x6F, 0x6E, 0x73,
  0x74, 0x34, 0x00, 0x00, 0x01, 0x00, 0x00, 0x00, 0x1C, 0x00, 0x00, 0x00, 0x7E, 0xFA, 0xFF, 0xFF,
  0x00, 0x00, 0x00, 0x01, 0x14, 0x00, 0x00, 0x00, 0x34, 0x00, 0x00, 0x00, 0x0B, 0x00, 0x00, 0x00,
  0x00, 0x00, 0x00, 0x09, 0x8C, 0x00, 0x00, 0x00, 0x94, 0xF9, 0xFF, 0xFF, 0x08, 0x00, 0x00, 0x00,
  0x14, 0x00, 0x00, 0x00, 0x01, 0x00, 0x00, 0x00, 0x00, 0x00, 0x00, 0x00, 0x00, 0x00, 0x00, 0x00,
  0x00, 0x00, 0x00, 0x00, 0x01, 0x00, 0x00, 0x00, 0xF0, 0x58, 0xB9, 0x3B, 0x5F, 0x00, 0x00, 0x00,
  0x73, 0x65, 0x71, 0x75, 0x65, 0x6E, 0x74, 0x69, 0x61, 0x6C, 0x2F, 0x71, 0x75, 0x61, 0x6E, 0x74,
  0x5F, 0x64, 0x65, 0x6E, 0x73, 0x65, 0x5F, 0x33, 0x2F, 0x4D, 0x61, 0x74, 0x4D, 0x75, 0x6C, 0x3B,
  0x73, 0x65, 0x71, 0x75, 0x65, 0x6E, 0x74, 0x69, 0x61, 0x6C, 0x2F, 0x71, 0x75, 0x61, 0x6E, 0x74,
  0x5F, 0x64, 0x65, 0x6E, 0x73, 0x65, 0x5F, 0x33, 0x2F, 0x4C, 0x61, 0x73, 0x74, 0x56, 0x61, 0x6C,
  0x75, 0x65, 0x51, 0x75, 0x61, 0x6E, 0x74, 0x2F, 0x46, 0x61, 0x6B, 0x65, 0x51, 0x75, 0x61, 0x6E,
  0x74, 0x57, 0x69, 0x74, 0x68, 0x4D, 0x69, 0x6E, 0x4D, 0x61, 0x78, 0x56, 0x61, 0x72, 0x73, 0x00,
  0x02, 0x00, 0x00, 0x00, 0x1C, 0x00, 0x00, 0x00, 0x1C, 0x00, 0x00, 0x00, 0x6A, 0xFA, 0xFF, 0xFF,
  0x00, 0x00, 0x00, 0x01, 0x18, 0x00, 0x00, 0x00, 0x20, 0x00, 0x00, 0x00, 0x40, 0x00, 0x00, 0x00,
  0x0A, 0x00, 0x00, 0x00, 0x00, 0x00, 0x00, 0x09, 0x98, 0x00, 0x00, 0x00, 0x02, 0x00, 0x00, 0x00,
  0xFF, 0xFF, 0xFF, 0xFF, 0x1C, 0x00, 0x00, 0x00, 0x54, 0xFA, 0xFF, 0xFF, 0x08, 0x00, 0x00, 0x00,
  0x14, 0x00, 0x00, 0x00, 0x01, 0x00, 0x00, 0x00, 0x80, 0xFF, 0xFF, 0xFF, 0xFF, 0xFF, 0xFF, 0xFF,
  0x00, 0x00, 0x00, 0x00, 0x01, 0x00, 0x00, 0x00, 0x9D, 0x4B, 0xA1, 0x3B, 0x5E, 0x00, 0x00, 0x00,
  0x73, 0x65, 0x71, 0x75, 0x65, 0x6E, 0x74, 0x69, 0x61, 0x6C, 0x2F, 0x71, 0x75, 0x61, 0x6E, 0x74,
  0x5F, 0x64, 0x65, 0x6E, 0x73, 0x65, 0x5F, 0x32, 0x2F, 0x4D, 0x61, 0x74, 0x4D, 0x75, 0x6C, 0x3B,
  0x73, 0x65, 0x71, 0x75, 0x65, 0x6E, 0x74, 0x69, 0x61, 0x6C, 0x2F, 0x71, 0x75, 0x61, 0x6E, 0x74,
  0x5F, 0x64, 0x65, 0x6E, 0x73, 0x65, 0x5F, 0x32, 0x2F, 0x52, 0x65, 0x6C, 0x75, 0x3B, 0x73, 0x65,
  0x71, 0x75, 0x65, 0x6E, 0x74, 0x69, 0x61, 0x6C, 0x2F, 0x71, 0x75, 0x61, 0x6E, 0x74, 0x5F, 0x64,
  0x65, 0x6E, 0x73, 0x65, 0x5F, 0x32, 0x2F, 0x42, 0x69, 0x61, 0x73, 0x41, 0x64, 0x64, 0x00, 0x00,
  0x02, 0x00, 0x00, 0x00, 0x01, 0x00, 0x00, 0x00, 0x1C, 0x00, 0x00, 0x00, 0xEE, 0xFB, 0xFF, 0xFF,
  0x00, 0x00, 0x00, 0x01, 0x14, 0x00, 0x00, 0x00, 0x34, 0x00, 0x00, 0x00, 0x09, 0x00, 0x00, 0x00,
  0x00, 0x00, 0x00, 0x02, 0x40, 0x00, 0x00, 0x00, 0x04, 0xFB, 0xFF, 0xFF, 0x08, 0x00, 0x00, 0x00,
  0x14, 0x00, 0x00, 0x00, 0x01, 0x00, 0x00, 0x00, 0x00, 0x00, 0x00, 0x00, 0x00, 0x00, 0x00, 0x00,
  0x00, 0x00, 0x00, 0x00, 0x01, 0x00, 0x00, 0x00, 0x35, 0xC3, 0x1F, 0x38, 0x12, 0x00, 0x00, 0x00,
  0x74, 0x66, 0x6C, 0x2E, 0x70, 0x73, 0x65, 0x75, 0x64, 0x6F, 0x5F, 0x71, 0x63, 0x6F, 0x6E, 0x73,
  0x74, 0x35, 0x00, 0x00, 0x01, 0x00, 0x00, 0x00, 0x1C, 0x00, 0x00, 0x00, 0x4E, 0xFC, 0xFF, 0xFF,
  0x00, 0x00, 0x00, 0x01, 0x14, 0x00, 0x00, 0x00, 0x34, 0x00, 0x00, 0x00, 0x08, 0x00, 0x00, 0x00,
  0x00, 0x00, 0x00, 0x09, 0x8C, 0x00, 0x00, 0x00, 0x64, 0xFB, 0xFF, 0xFF, 0x08, 0x00, 0x00, 0x00,
  0x14, 0x00, 0x00, 0x00, 0x01, 0x00, 0x00, 0x00, 0x00, 0x00, 0x00, 0x00, 0x00, 0x00, 0x00, 0x00,
  0x00, 0x00, 0x00, 0x00, 0x01, 0x00, 0x00, 0x00, 0x64, 0x4F, 0xA1, 0x3B, 0x5F, 0x00, 0x00, 0x00,
  0x73, 0x65, 0x71, 0x75, 0x65, 0x6E, 0x74, 0x69, 0x61, 0x6C, 0x2F, 0x71, 0x75, 0x61, 0x6E, 0x74,
  0x5F, 0x64, 0x65, 0x6E, 0x73, 0x65, 0x5F, 0x32, 0x2F, 0x4D, 0x61, 0x74, 0x4D, 0x75, 0x6C, 0x3B,
  0x73, 0x65, 0x71, 0x75, 0x65, 0x6E, 0x74, 0x69, 0x61, 0x6C, 0x2F, 0x71, 0x75, 0x61, 0x6E, 0x74,
  0x5F, 0x64, 0x65, 0x6E, 0x73, 0x65, 0x5F, 0x32, 0x2F, 0x4C, 0x61, 0x73, 0x74, 0x56, 0x61, 0x6C,
  0x75, 0x65, 0x51, 0x75, 0x61, 0x6E, 0x74, 0x2F, 0x46, 0x61, 0x6B, 0x65, 0x51, 0x75, 0x61, 0x6E,
  0x74, 0x57, 0x69, 0x74, 0x68, 0x4D, 0x69, 0x6E, 0x4D, 0x61, 0x78, 0x56, 0x61, 0x72, 0x73, 0x00,
  0x02, 0x00, 0x00, 0x00, 0x1C, 0x00, 0x00, 0x00, 0x1C, 0x00, 0x00, 0x00, 0x3A, 0xFC, 0xFF, 0xFF,
  0x00, 0x00, 0x00, 0x01, 0x18, 0x00, 0x00, 0x00, 0x20, 0x00, 0x00, 0x00, 0x40, 0x00, 0x00, 0x00,
  0x07, 0x00, 0x00, 0x00, 0x00, 0x00, 0x00, 0x09, 0x98, 0x00, 0x00, 0x00, 0x02, 0x00, 0x00, 0x00,
  0xFF, 0xFF, 0xFF, 0xFF, 0x1C, 0x00, 0x00, 0x00, 0x24, 0xFC, 0xFF, 0xFF, 0x08, 0x00, 0x00, 0x00,
  0x14, 0x00, 0x00, 0x00, 0x01, 0x00, 0x00, 0x00, 0x80, 0xFF, 0xFF, 0xFF, 0xFF, 0xFF, 0xFF, 0xFF,
  0x00, 0x00, 0x00, 0x00, 0x01, 0x00, 0x00, 0x00, 0x42, 0x8B, 0xFD, 0x3B, 0x5E, 0x00, 0x00, 0x00,
  0x73, 0x65, 0x71, 0x75, 0x65, 0x6E, 0x74, 0x69, 0x61, 0x6C, 0x2F, 0x71, 0x75, 0x61, 0x6E, 0x74,
  0x5F, 0x64, 0x65, 0x6E, 0x73, 0x65, 0x5F, 0x31, 0x2F, 0x4D, 0x61, 0x74, 0x4D, 0x75, 0x6C, 0x3B,
  0x73, 0x65, 0x71, 0x75, 0x65, 0x6E, 0x74, 0x69, 0x61, 0x6C, 0x2F, 0x71, 0x75, 0x61, 0x6E, 0x74,
  0x5F, 0x64, 0x65, 0x6E, 0x73, 0x65, 0x5F, 0x31, 0x2F, 0x52, 0x65, 0x6C, 0x75, 0x3B, 0x73, 0x65,
  0x71, 0x75, 0x65, 0x6E, 0x74, 0x69, 0x61, 0x6C, 0x2F, 0x71, 0x75, 0x61, 0x6E, 0x74, 0x5F, 0x64,
  0x65, 0x6E, 0x73, 0x65, 0x5F, 0x31, 0x2F, 0x42, 0x69, 0x61, 0x73, 0x41, 0x64, 0x64, 0x00, 0x00,
  0x02, 0x00, 0x00, 0x00, 0x01, 0x00, 0x00, 0x00, 0x1C, 0x00, 0x00, 0x00, 0xBE, 0xFD, 0xFF, 0xFF,
  0x00, 0x00, 0x00, 0x01, 0x14, 0x00, 0x00, 0x00, 0x30, 0x00, 0x00, 0x00, 0x06, 0x00, 0x00, 0x00,
  0x00, 0x00, 0x00, 0x02, 0x58, 0x00, 0x00, 0x00, 0xD4, 0xFC, 0xFF, 0xFF, 0x08, 0x00, 0x00, 0x00,
  0x10, 0x00, 0x00, 0x00, 0x01, 0x00, 0x00, 0x00, 0x00, 0x00, 0x00, 0x00, 0x00, 0x00, 0x00, 0x00,
  0x01, 0x00, 0x00, 0x00, 0x36, 0x37, 0x2D, 0x38, 0x2F, 0x00, 0x00, 0x00, 0x73, 0x65, 0x71, 0x75,
  0x65, 0x6E, 0x74, 0x69, 0x61, 0x6C, 0x2F, 0x71, 0x75, 0x61, 0x6E, 0x74, 0x5F, 0x64, 0x65, 0x6E,
  0x73, 0x65, 0x5F, 0x31, 0x2F, 0x42, 0x69, 0x61, 0x73, 0x41, 0x64, 0x64, 0x2F, 0x52, 0x65, 0x61,
  0x64, 0x56, 0x61, 0x72, 0x69, 0x61, 0x62, 0x6C, 0x65, 0x4F, 0x70, 0x00, 0x01, 0x00, 0x00, 0x00,
  0x1C, 0x00, 0x00, 0x00, 0x36, 0xFE, 0xFF, 0xFF, 0x00, 0x00, 0x00, 0x01, 0x14, 0x00, 0x00, 0x00,
  0x34, 0x00, 0x00, 0x00, 0x05, 0x00, 0x00, 0x00, 0x00, 0x00, 0x00, 0x09, 0x8C, 0x00, 0x00, 0x00,
  0x4C, 0xFD, 0xFF, 0xFF, 0x08, 0x00, 0x00, 0x00, 0x14, 0x00, 0x00, 0x00, 0x01, 0x00, 0x00, 0x00,
  0x00, 0x00, 0x00, 0x00, 0x00, 0x00, 0x00, 0x00, 0x00, 0x00, 0x00, 0x00, 0x01, 0x00, 0x00, 0x00,
  0xED, 0x0D, 0xA7, 0x3B, 0x5F, 0x00, 0x00, 0x00, 0x73, 0x65, 0x71, 0x75, 0x65, 0x6E, 0x74, 0x69,
  0x61, 0x6C, 0x2F, 0x71, 0x75, 0x61, 0x6E, 0x74, 0x5F, 0x64, 0x65, 0x6E, 0x73, 0x65, 0x5F, 0x31,
  0x2F, 0x4D, 0x61, 0x74, 0x4D, 0x75, 0x6C, 0x3B, 0x73, 0x65, 0x71, 0x75, 0x65, 0x6E, 0x74, 0x69,
  0x61, 0x6C, 0x2F, 0x71, 0x75, 0x61, 0x6E, 0x74, 0x5F, 0x64, 0x65, 0x6E, 0x73, 0x65, 0x5F, 0x31,
  0x2F, 0x4C, 0x61, 0x73, 0x74, 0x56, 0x61, 0x6C, 0x75, 0x65, 0x51, 0x75, 0x61, 0x6E, 0x74, 0x2F,
  0x46, 0x61, 0x6B, 0x65, 0x51, 0x75, 0x61, 0x6E, 0x74, 0x57, 0x69, 0x74, 0x68, 0x4D, 0x69, 0x6E,
  0x4D, 0x61, 0x78, 0x56, 0x61, 0x72, 0x73, 0x00, 0x02, 0x00, 0x00, 0x00, 0x1C, 0x00, 0x00, 0x00,
  0x1C, 0x00, 0x00, 0x00, 0x22, 0xFE, 0xFF, 0xFF, 0x00, 0x00, 0x00, 0x01, 0x18, 0x00, 0x00, 0x00,
  0x20, 0x00, 0x00, 0x00, 0x3C, 0x00, 0x00, 0x00, 0x04, 0x00, 0x00, 0x00, 0x00, 0x00, 0x00, 0x09,
  0x90, 0x00, 0x00, 0x00, 0x02, 0x00, 0x00, 0x00, 0xFF, 0xFF, 0xFF, 0xFF, 0x1C, 0x00, 0x00, 0x00,
  0x0C, 0xFE, 0xFF, 0xFF, 0x08, 0x00, 0x00, 0x00, 0x10, 0x00, 0x00, 0x00, 0x01, 0x00, 0x00, 0x00,
  0x80, 0xFF, 0xFF, 0xFF, 0xFF, 0xFF, 0xFF, 0xFF, 0x01, 0x00, 0x00, 0x00, 0x8B, 0xB8, 0x04, 0x3C,
  0x58, 0x00, 0x00, 0x00, 0x73, 0x65, 0x71, 0x75, 0x65, 0x6E, 0x74, 0x69, 0x61, 0x6C, 0x2F, 0x71,
  0x75, 0x61, 0x6E, 0x74, 0x5F, 0x64, 0x65, 0x6E, 0x73, 0x65, 0x2F, 0x4D, 0x61, 0x74, 0x4D, 0x75,
  0x6C, 0x3B, 0x73, 0x65, 0x71, 0x75, 0x65, 0x6E, 0x74, 0x69, 0x61, 0x6C, 0x2F, 0x71, 0x75, 0x61,
  0x6E, 0x74, 0x5F, 0x64, 0x65, 0x6E, 0x73, 0x65, 0x2F, 0x52, 0x65, 0x6C, 0x75, 0x3B, 0x73, 0x65,
  0x71, 0x75, 0x65, 0x6E, 0x74, 0x69, 0x61, 0x6C, 0x2F, 0x71, 0x75, 0x61, 0x6E, 0x74, 0x5F, 0x64,
  0x65, 0x6E, 0x73, 0x65, 0x2F, 0x42, 0x69, 0x61, 0x73, 0x41, 0x64, 0x64, 0x00, 0x00, 0x00, 0x00,
  0x02, 0x00, 0x00, 0x00, 0x01, 0x00, 0x00, 0x00, 0x1C, 0x00, 0x00, 0x00, 0x9E, 0xFF, 0xFF, 0xFF,
  0x00, 0x00, 0x00, 0x01, 0x14, 0x00, 0x00, 0x00, 0x34, 0x00, 0x00, 0x00, 0x03, 0x00, 0x00, 0x00,
  0x00, 0x00, 0x00, 0x02, 0x40, 0x00, 0x00, 0x00, 0xB4, 0xFE, 0xFF, 0xFF, 0x08, 0x00, 0x00, 0x00,
  0x14, 0x00, 0x00, 0x00, 0x01, 0x00, 0x00, 0x00, 0x00, 0x00, 0x00, 0x00, 0x00, 0x00, 0x00, 0x00,
  0x00, 0x00, 0x00, 0x00, 0x01, 0x00, 0x00, 0x00, 0x65, 0x4E, 0x05, 0x39, 0x11, 0x00, 0x00, 0x00,
  0x74, 0x66, 0x6C, 0x2E, 0x70, 0x73, 0x65, 0x75, 0x64, 0x6F, 0x5F, 0x71, 0x63, 0x6F, 0x6E, 0x73,
  0x74, 0x00, 0x00, 0x00, 0x01, 0x00, 0x00, 0x00, 0x1C, 0x00, 0x00, 0x00, 0x00, 0x00, 0x16, 0x00,
  0x1C, 0x00, 0x18, 0x00, 0x17, 0x00, 0x10, 0x00, 0x0C, 0x00, 0x08, 0x00, 0x00, 0x00, 0x00, 0x00,
  0x00, 0x00, 0x07, 0x00, 0x16, 0x00, 0x00, 0x00, 0x00, 0x00, 0x00, 0x01, 0x14, 0x00, 0x00, 0x00,
  0x34, 0x00, 0x00, 0x00, 0x02, 0x00, 0x00, 0x00, 0x00, 0x00, 0x00, 0x09, 0x88, 0x00, 0x00, 0x00,
  0x2C, 0xFF, 0xFF, 0xFF, 0x08, 0x00, 0x00, 0x00, 0x14, 0x00, 0x00, 0x00, 0x01, 0x00, 0x00, 0x00,
  0x00, 0x00, 0x00, 0x00, 0x00, 0x00, 0x00, 0x00, 0x00, 0x00, 0x00, 0x00, 0x01, 0x00, 0x00, 0x00,
  0x35, 0x44, 0x92, 0x3B, 0x5B, 0x00, 0x00, 0x00, 0x73, 0x65, 0x71, 0x75, 0x65, 0x6E, 0x74, 0x69,
  0x61, 0x6C, 0x2F, 0x71, 0x75, 0x61, 0x6E, 0x74, 0x5F, 0x64, 0x65, 0x6E, 0x73, 0x65, 0x2F, 0x4D,
  0x61, 0x74, 0x4D, 0x75, 0x6C, 0x3B, 0x73, 0x65, 0x71, 0x75, 0x65, 0x6E, 0x74, 0x69, 0x61, 0x6C,
  0x2F, 0x71, 0x75, 0x61, 0x6E, 0x74, 0x5F, 0x64, 0x65, 0x6E, 0x73, 0x65, 0x2F, 0x4C, 0x61, 0x73,
  0x74, 0x56, 0x61, 0x6C, 0x75, 0x65, 0x51, 0x75, 0x61, 0x6E, 0x74, 0x2F, 0x46, 0x61, 0x6B, 0x65,
  0x51, 0x75, 0x61, 0x6E, 0x74, 0x57, 0x69, 0x74, 0x68, 0x4D, 0x69, 0x6E, 0x4D, 0x61, 0x78, 0x56,
  0x61, 0x72, 0x73, 0x00, 0x02, 0x00, 0x00, 0x00, 0x1C, 0x00, 0x00, 0x00, 0x04, 0x00, 0x00, 0x00,
  0x00, 0x00, 0x16, 0x00, 0x20, 0x00, 0x1C, 0x00, 0x1B, 0x00, 0x14, 0x00, 0x10, 0x00, 0x0C, 0x00,
  0x00, 0x00, 0x00, 0x00, 0x08, 0x00, 0x07, 0x00, 0x16, 0x00, 0x00, 0x00, 0x00, 0x00, 0x00, 0x01,
  0x18, 0x00, 0x00, 0x00, 0x2C, 0x00, 0x00, 0x00, 0x48, 0x00, 0x00, 0x00, 0x01, 0x00, 0x00, 0x00,
  0x00, 0x00, 0x00, 0x09, 0x54, 0x00, 0x00, 0x00, 0x02, 0x00, 0x00, 0x00, 0xFF, 0xFF, 0xFF, 0xFF,
  0x04, 0x00, 0x00, 0x00, 0x0C, 0x00, 0x0C, 0x00, 0x00, 0x00, 0x00, 0x00, 0x08, 0x00, 0x04, 0x00,
  0x0C, 0x00, 0x00, 0x00, 0x08, 0x00, 0x00, 0x00, 0x10, 0x00, 0x00, 0x00, 0x01, 0x00, 0x00, 0x00,
  0x01, 0x00, 0x00, 0x00, 0x00, 0x00, 0x00, 0x00, 0x01, 0x00, 0x00, 0x00, 0x0F, 0x51, 0xE9, 0x3C,
  0x13, 0x00, 0x00, 0x00, 0x73, 0x65, 0x72, 0x76, 0x69, 0x6E, 0x67, 0x5F, 0x64, 0x65, 0x66, 0x61,
  0x75, 0x6C, 0x74, 0x5F, 0x78, 0x3A, 0x30, 0x00, 0x02, 0x00, 0x00, 0x00, 0x01, 0x00, 0x00, 0x00,
  0x04, 0x00, 0x00, 0x00, 0x01, 0x00, 0x00, 0x00, 0x10, 0x00, 0x00, 0x00, 0x0C, 0x00, 0x10, 0x00,
  0x0F, 0x00, 0x00, 0x00, 0x08, 0x00, 0x04, 0x00, 0x0C, 0x00, 0x00, 0x00, 0x09, 0x00, 0x00, 0x00,
  0x04, 0x00, 0x00, 0x00, 0x00, 0x00, 0x00, 0x09,
};
const int g_model_len = 9544;